unsigned char models_sinemodel_tflite[] = {
  0x1c, 0x00, 0x00, 0x00, 0x54, 0x46, 0x4c, 0x33, 0x14, 0x00, 0x20, 0x00,
  0x1c, 0x00, 0x18, 0x00, 0x14, 0x00, 0x10, 0x00, 0x0c, 0x00, 0x00, 0x00,
  0x08, 0x00, 0x04, 0x00, 0x14, 0x00, 0x00, 0x00, 0x1c, 0x00, 0x00, 0x00,
  0x84, 0x00, 0x00, 0x00, 0xdc, 0x00, 0x00, 0x00, 0xac, 0x09, 0x00, 0x00,
  0xbc, 0x09, 0x00, 0x00, 0x1c, 0x14, 0x00, 0x00, 0x03, 0x00, 0x00, 0x00,
  0x01, 0x00, 0x00, 0x00, 0x04, 0x00, 0x00, 0x00, 0xce, 0xf4, 0xff, 0xff,
  0x0c, 0x00, 0x00, 0x00, 0x1c, 0x00, 0x00, 0x00, 0x38, 0x00, 0x00, 0x00,
  0x0f, 0x00, 0x00, 0x00, 0x73, 0x65, 0x72, 0x76, 0x69, 0x6e, 0x67, 0x5f,
  0x64, 0x65, 0x66, 0x61, 0x75, 0x6c, 0x74, 0x00, 0x01, 0x00, 0x00, 0x00,
  0x04, 0x00, 0x00, 0x00, 0x98, 0xff, 0xff, 0xff, 0x15, 0x00, 0x00, 0x00,
  0x04, 0x00, 0x00, 0x00, 0x07, 0x00, 0x00, 0x00, 0x64, 0x65, 0x6e, 0x73,
  0x65, 0x5f, 0x35, 0x00, 0x01, 0x00, 0x00, 0x00, 0x04, 0x00, 0x00, 0x00,
  0xfa, 0xf6, 0xff, 0xff, 0x04, 0x00, 0x00, 0x00, 0x0b, 0x00, 0x00, 0x00,
  0x64, 0x65, 0x6e, 0x73, 0x65, 0x5f, 0x69, 0x6e, 0x70, 0x75, 0x74, 0x00,
  0x02, 0x00, 0x00, 0x00, 0x34, 0x00, 0x00, 0x00, 0x04, 0x00, 0x00, 0x00,
  0xdc, 0xff, 0xff, 0xff, 0x18, 0x00, 0x00, 0x00, 0x04, 0x00, 0x00, 0x00,
  0x13, 0x00, 0x00, 0x00, 0x43, 0x4f, 0x4e, 0x56, 0x45, 0x52, 0x53, 0x49,
  0x4f, 0x4e, 0x5f, 0x4d, 0x45, 0x54, 0x41, 0x44, 0x41, 0x54, 0x41, 0x00,
  0x08, 0x00, 0x0c, 0x00, 0x08, 0x00, 0x04, 0x00, 0x08, 0x00, 0x00, 0x00,
  0x17, 0x00, 0x00, 0x00, 0x04, 0x00, 0x00, 0x00, 0x13, 0x00, 0x00, 0x00,
  0x6d, 0x69, 0x6e, 0x5f, 0x72, 0x75, 0x6e, 0x74, 0x69, 0x6d, 0x65, 0x5f,
  0x76, 0x65, 0x72, 0x73, 0x69, 0x6f, 0x6e, 0x00, 0x19, 0x00, 0x00, 0x00,
  0xcc, 0x08, 0x00, 0x00, 0xc4, 0x08, 0x00, 0x00, 0x8c, 0x08, 0x00, 0x00,
  0x4c, 0x08, 0x00, 0x00, 0x14, 0x08, 0x00, 0x00, 0xdc, 0x07, 0x00, 0x00,
  0xc8, 0x07, 0x00, 0x00, 0x90, 0x07, 0x00, 0x00, 0xf0, 0x05, 0x00, 0x00,
  0x50, 0x04, 0x00, 0x00, 0xb0, 0x02, 0x00, 0x00, 0x10, 0x01, 0x00, 0x00,
  0xd8, 0x00, 0x00, 0x00, 0xd0, 0x00, 0x00, 0x00, 0xc8, 0x00, 0x00, 0x00,
  0xc0, 0x00, 0x00, 0x00, 0xb8, 0x00, 0x00, 0x00, 0xb0, 0x00, 0x00, 0x00,
  0xa8, 0x00, 0x00, 0x00, 0xa0, 0x00, 0x00, 0x00, 0x98, 0x00, 0x00, 0x00,
  0x90, 0x00, 0x00, 0x00, 0x88, 0x00, 0x00, 0x00, 0x68, 0x00, 0x00, 0x00,
  0x04, 0x00, 0x00, 0x00, 0xd6, 0xf7, 0xff, 0xff, 0x04, 0x00, 0x00, 0x00,
  0x54, 0x00, 0x00, 0x00, 0x0c, 0x00, 0x00, 0x00, 0x08, 0x00, 0x0e, 0x00,
  0x08, 0x00, 0x04, 0x00, 0x08, 0x00, 0x00, 0x00, 0x10, 0x00, 0x00, 0x00,
  0x24, 0x00, 0x00, 0x00, 0x00, 0x00, 0x06, 0x00, 0x08, 0x00, 0x04, 0x00,
  0x06, 0x00, 0x00, 0x00, 0x04, 0x00, 0x00, 0x00, 0x00, 0x00, 0x00, 0x00,
  0x00, 0x00, 0x0a, 0x00, 0x10, 0x00, 0x0c, 0x00, 0x08, 0x00, 0x04, 0x00,
  0x0a, 0x00, 0x00, 0x00, 0x01, 0x00, 0x00, 0x00, 0x02, 0x00, 0x00, 0x00,
  0x04, 0x00, 0x00, 0x00, 0x06, 0x00, 0x00, 0x00, 0x32, 0x2e, 0x31, 0x31,
  0x2e, 0x30, 0x00, 0x00, 0x36, 0xf8, 0xff, 0xff, 0x04, 0x00, 0x00, 0x00,
  0x10, 0x00, 0x00, 0x00, 0x31, 0x2e, 0x31, 0x34, 0x2e, 0x30, 0x00, 0x00,
  0x00, 0x00, 0x00, 0x00, 0x00, 0x00, 0x00, 0x00, 0xd0, 0xed, 0xff, 0xff,
  0xd4, 0xed, 0xff, 0xff, 0xd8, 0xed, 0xff, 0xff, 0xdc, 0xed, 0xff, 0xff,
  0xe0, 0xed, 0xff, 0xff, 0xe4, 0xed, 0xff, 0xff, 0xe8, 0xed, 0xff, 0xff,
  0xec, 0xed, 0xff, 0xff, 0xf0, 0xed, 0xff, 0xff, 0xf4, 0xed, 0xff, 0xff,
  0x7a, 0xf8, 0xff, 0xff, 0x04, 0x00, 0x00, 0x00, 0x28, 0x00, 0x00, 0x00,
  0x0f, 0x3e, 0xa2, 0x3e, 0xae, 0x07, 0x4e, 0xbe, 0xe7, 0x81, 0x39, 0x3f,
  0xda, 0xea, 0x75, 0x3f, 0x7f, 0x4d, 0x6f, 0xbf, 0x93, 0x18, 0xbf, 0xbd,
  0x97, 0xe3, 0x60, 0xbe, 0x51, 0x9a, 0xad, 0xbd, 0x60, 0x78, 0x0e, 0xbe,
  0x5e, 0xf9, 0x2e, 0xbf, 0xae, 0xf8, 0xff, 0xff, 0x04, 0x00, 0x00, 0x00,
  0x90, 0x01, 0x00, 0x00, 0x34, 0x92, 0xc0, 0xbe, 0xc0, 0xf0, 0xd6, 0xbe,
  0x17, 0x41, 0x04, 0x3e, 0x76, 0x2b, 0x57, 0x3e, 0x31, 0xde, 0x11, 0x3f,
  0xda, 0x71, 0x95, 0xbe, 0xbe, 0x4f, 0xd8, 0x3c, 0x9e, 0x87, 0x8b, 0xbe,
  0xd5, 0x8c, 0xa6, 0xbe, 0x49, 0x80, 0xc1, 0xbe, 0xad, 0x65, 0x96, 0x3e,
  0x3b, 0x01, 0x8f, 0xbe, 0xd9, 0xbd, 0xd6, 0x3e, 0xf4, 0x83, 0x10, 0x3d,
  0x11, 0x58, 0xf8, 0xbe, 0xf5, 0x32, 0x7b, 0x3e, 0xde, 0x61, 0xb7, 0xbe,
  0x0c, 0xad, 0xec, 0xbe, 0x12, 0xac, 0x8a, 0x3e, 0x1b, 0xc8, 0x01, 0x3d,
  0xed, 0xc1, 0x8e, 0xbe, 0xad, 0x79, 0x11, 0x3f, 0x4e, 0xe5, 0x15, 0x3e,
  0xe2, 0xc8, 0xaf, 0x3e, 0x27, 0x69, 0xbf, 0x3e, 0xda, 0x67, 0xfc, 0x3e,
  0xa8, 0x6c, 0x35, 0x3f, 0x2a, 0xd1, 0xf0, 0x3e, 0x1e, 0xc0, 0xd7, 0xbe,
  0x94, 0x3d, 0x7e, 0x3c, 0x8b, 0x0d, 0x17, 0xbf, 0x65, 0x32, 0xab, 0x3e,
  0x99, 0x2e, 0x27, 0x3d, 0x80, 0x4c, 0x13, 0x3f, 0x9b, 0x0e, 0x1a, 0xbf,
  0xcb, 0xf8, 0xbb, 0x3a, 0x3f, 0x7e, 0xdb, 0x3c, 0xb3, 0x58, 0x51, 0x3f,
  0x3c, 0x92, 0x12, 0x3f, 0x99, 0xb9, 0x01, 0x3e, 0x8a, 0x4a, 0x00, 0xbe,
  0x20, 0x8f, 0xda, 0xbc, 0x7b, 0x98, 0xfa, 0xbe, 0x72, 0xc5, 0x01, 0x3f,
  0xdb, 0xf7, 0xfa, 0xbe, 0xc4, 0xda, 0x25, 0xbe, 0xf3, 0x00, 0xae, 0xbe,
  0x7f, 0x6d, 0xd2, 0xbd, 0x07, 0x63, 0xc6, 0xbc, 0x62, 0x53, 0x70, 0x3e,
  0x5b, 0xd4, 0xf2, 0xbe, 0x89, 0xea, 0x91, 0xbc, 0xd5, 0x38, 0x63, 0x3e,
  0x3c, 0xb5, 0x92, 0xbe, 0x38, 0x23, 0x09, 0x3e, 0x6e, 0x4a, 0x1a, 0x3e,
  0x9e, 0xef, 0xd3, 0xbe, 0x26, 0x37, 0x47, 0x3d, 0xf1, 0xdc, 0x6d, 0x3d,
  0x84, 0x8f, 0x98, 0xbc, 0x6c, 0x4c, 0xbd, 0x3e, 0xa2, 0x57, 0xcc, 0x3e,
  0x2c, 0x14, 0xcb, 0x3d, 0x43, 0x77, 0x93, 0x3d, 0xae, 0x86, 0x8e, 0xbe,
  0x12, 0x7d, 0xb5, 0xbe, 0x87, 0xf8, 0xd9, 0x3e, 0x93, 0x8e, 0x83, 0x3d,
  0xe6, 0x13, 0x03, 0x3f, 0x78, 0x17, 0x06, 0x3e, 0x42, 0x4a, 0xbd, 0xbe,
  0xde, 0x7b, 0xb8, 0xbe, 0xda, 0x9c, 0x47, 0x3e, 0xac, 0x9d, 0x45, 0xbd,
  0x61, 0x52, 0xc6, 0x3e, 0xbc, 0x62, 0xa3, 0xbd, 0xf1, 0x42, 0xa5, 0x3e,
  0x87, 0x78, 0x6d, 0xbe, 0x34, 0x86, 0xa5, 0xbe, 0x1a, 0x0c, 0x05, 0x3f,
  0xed, 0x06, 0x1b, 0xbe, 0x95, 0x7d, 0x70, 0x3e, 0x3a, 0x8d, 0x64, 0xbe,
  0x20, 0x2b, 0x0c, 0xbf, 0x62, 0x1a, 0xeb, 0x3e, 0x1c, 0x86, 0xba, 0x3e,
  0x23, 0x76, 0x75, 0x3e, 0xaf, 0x49, 0xea, 0xbe, 0x42, 0x1d, 0x29, 0xbe,
  0x6a, 0x8d, 0xb6, 0x3e, 0x33, 0x27, 0x40, 0x3d, 0x32, 0xcb, 0xea, 0xbe,
  0x97, 0x81, 0xbe, 0xbe, 0x2d, 0xea, 0xad, 0xbd, 0x18, 0x20, 0xa2, 0xbe,
  0x39, 0x3b, 0xac, 0xbe, 0xeb, 0xa7, 0xa1, 0xbe, 0x89, 0xc9, 0xf4, 0xbe,
  0x05, 0x93, 0x32, 0xbe, 0x13, 0xf1, 0x85, 0x3e, 0x4a, 0xfa, 0xff, 0xff,
  0x04, 0x00, 0x00, 0x00, 0x90, 0x01, 0x00, 0x00, 0xf7, 0xde, 0xf7, 0xbe,
  0xd2, 0xf5, 0xb4, 0xbe, 0x19, 0xaf, 0xb9, 0x3e, 0x96, 0xd7, 0x02, 0xbf,
  0x75, 0x1f, 0x1a, 0x3e, 0xf4, 0x9a, 0xe3, 0x3e, 0x54, 0xc7, 0x18, 0xbe,
  0x18, 0x19, 0x80, 0x3e, 0x91, 0x45, 0x03, 0xbe, 0xb4, 0xdd, 0x16, 0x3d,
  0x9a, 0xce, 0xc2, 0xbd, 0xf4, 0x34, 0xe8, 0x3e, 0x71, 0x15, 0x80, 0xbe,
  0xf5, 0xde, 0x03, 0x3e, 0xd5, 0xa1, 0x26, 0xbe, 0x96, 0xc6, 0x18, 0xbf,
  0xef, 0x90, 0xcb, 0x3e, 0x32, 0x14, 0xf8, 0x3b, 0xec, 0x36, 0x93, 0x3d,
  0x88, 0x5d, 0x16, 0xbf, 0xe0, 0xe0, 0x9b, 0x3e, 0x7a, 0x4e, 0x6c, 0xbc,
  0x0d, 0x4a, 0xb4, 0xbe, 0xd6, 0xa4, 0x1c, 0xbe, 0xd1, 0x57, 0x2b, 0x3f,
  0xd3, 0x04, 0x67, 0x3d, 0x97, 0x34, 0xd1, 0x3e, 0xaa, 0x14, 0x1f, 0xbf,
  0x4d, 0xfc, 0x21, 0x3e, 0xc5, 0x1b, 0x27, 0xbe, 0x67, 0x6d, 0x83, 0x3e,
  0x97, 0x64, 0xd4, 0x3d, 0x12, 0x2f, 0x8c, 0xbe, 0xdc, 0x6d, 0x3e, 0xbc,
  0x5b, 0xb2, 0x68, 0xbe, 0x49, 0x67, 0x12, 0xbf, 0x8a, 0x97, 0x89, 0xbe,
  0x19, 0x32, 0x0b, 0xbf, 0xb5, 0xa4, 0xd4, 0xbe, 0x79, 0x63, 0xf6, 0x3e,
  0x33, 0x08, 0xa5, 0xbd, 0x4c, 0x99, 0xc8, 0x3e, 0xb4, 0xbd, 0x63, 0x3e,
  0x24, 0xe0, 0xe9, 0x3e, 0x1f, 0xdb, 0x21, 0xbe, 0xd0, 0xfa, 0x3a, 0xbe,
  0xee, 0x8e, 0x48, 0xbe, 0xfa, 0xa7, 0xe1, 0x3e, 0x29, 0x5a, 0xce, 0x3e,
  0xdc, 0x33, 0x88, 0xbe, 0xd6, 0x17, 0x64, 0x3e, 0x22, 0xa2, 0xab, 0xbc,
  0xc6, 0xad, 0x6f, 0x3e, 0x2c, 0x53, 0xc8, 0x3e, 0x73, 0x77, 0xc8, 0xbe,
  0x5f, 0xda, 0x98, 0x3d, 0xcb, 0x0a, 0xd2, 0xbc, 0x51, 0x82, 0x1e, 0x3e,
  0x4c, 0x0e, 0xba, 0x3e, 0x73, 0x60, 0x68, 0x3e, 0xab, 0x9c, 0xe3, 0x3e,
  0x08, 0x6b, 0xfd, 0x3d, 0x1d, 0x02, 0x36, 0x3c, 0x89, 0xd6, 0xe5, 0x3e,
  0xc3, 0x1d, 0xc4, 0xbd, 0xeb, 0x1f, 0xcb, 0xbe, 0x71, 0x24, 0x8d, 0x3d,
  0x42, 0x05, 0xb8, 0x3e, 0xe1, 0x6a, 0x0c, 0x3f, 0x3f, 0x0c, 0x01, 0xbf,
  0x6b, 0x6f, 0x05, 0x3f, 0x3e, 0x70, 0x9a, 0x3e, 0x10, 0x61, 0x52, 0xbe,
  0x91, 0x4a, 0xae, 0xbe, 0xf8, 0x13, 0x2e, 0x3f, 0x9b, 0x30, 0xf2, 0x3e,
  0x6c, 0xa8, 0x03, 0xbf, 0x25, 0x33, 0x2f, 0xbf, 0x5b, 0xe0, 0x6d, 0x3e,
  0xbd, 0x28, 0x6d, 0x3e, 0xe8, 0xe0, 0x8a, 0x3d, 0x0b, 0x0f, 0x11, 0x3e,
  0x62, 0xf1, 0xaf, 0xbc, 0x51, 0x27, 0x22, 0x3e, 0x0a, 0x32, 0xcf, 0x3e,
  0x54, 0x79, 0x0c, 0xbe, 0xda, 0x3a, 0x12, 0xbe, 0x1e, 0xf9, 0x8b, 0xbe,
  0x78, 0x04, 0x95, 0x3e, 0xb9, 0x53, 0x0b, 0x3f, 0xc7, 0x2e, 0x23, 0xbb,
  0xa3, 0x31, 0xaa, 0x3e, 0x77, 0x9a, 0xb5, 0x3e, 0x96, 0xc1, 0x64, 0x3e,
  0x4c, 0xbf, 0xfb, 0x3e, 0xed, 0xf2, 0x09, 0x3c, 0x6d, 0x0f, 0xa2, 0x3c,
  0xfa, 0x9c, 0xcc, 0xbe, 0x9d, 0x58, 0x9d, 0xbe, 0xb9, 0x14, 0x3c, 0xbe,
  0xe6, 0xfb, 0xff, 0xff, 0x04, 0x00, 0x00, 0x00, 0x90, 0x01, 0x00, 0x00,
  0xc9, 0x41, 0x80, 0xbe, 0x07, 0xa7, 0xd3, 0xbe, 0x23, 0xfd, 0x75, 0xbe,
  0xc6, 0x0a, 0x18, 0xbf, 0xb2, 0xf8, 0x29, 0x3f, 0xd8, 0x7e, 0xc2, 0xbd,
  0xe7, 0xad, 0x57, 0x3e, 0x41, 0x39, 0xf4, 0xbe, 0xe0, 0x4f, 0x9a, 0x3e,
  0xa6, 0x16, 0xa3, 0x3d, 0x18, 0xa6, 0xf3, 0xbe, 0x54, 0x1b, 0xc8, 0xbe,
  0x3e, 0xa5, 0x80, 0x3e, 0xf5, 0xde, 0x12, 0xbf, 0xc8, 0x9d, 0x8b, 0x3d,
  0x1c, 0x21, 0xd3, 0x3c, 0xa9, 0xb2, 0xc4, 0x3e, 0xdb, 0xa0, 0x8e, 0xbe,
  0x89, 0xc5, 0x78, 0xbe, 0x74, 0x2a, 0xcf, 0xbd, 0x5f, 0x8c, 0xe2, 0xbe,
  0x14, 0x83, 0xd3, 0x3e, 0x9a, 0x88, 0xcb, 0x3e, 0xeb, 0xf9, 0x04, 0x3f,
  0x47, 0x19, 0xf4, 0x3d, 0xb7, 0x09, 0xb2, 0x3d, 0xaa, 0x8d, 0xd3, 0xbe,
  0x14, 0x51, 0x04, 0x3f, 0x90, 0xb6, 0xf3, 0xbc, 0x0e, 0x65, 0x8e, 0xba,
  0xa8, 0x6f, 0xe2, 0x3e, 0xc8, 0x3c, 0x18, 0x3f, 0x13, 0x84, 0x71, 0x3e,
  0x40, 0xc8, 0xd3, 0xbd, 0x97, 0x79, 0x1c, 0x3d, 0x76, 0xc3, 0x43, 0xbd,
  0x32, 0xb0, 0x5d, 0xbd, 0x4b, 0xf0, 0xd1, 0x3e, 0x99, 0x62, 0x81, 0x3d,
  0xed, 0x7b, 0x85, 0x3e, 0xcd, 0xab, 0xda, 0x3e, 0x5c, 0x57, 0x9b, 0xbe,
  0x83, 0x0a, 0x04, 0x3f, 0x73, 0xff, 0x7e, 0xbd, 0xff, 0xdd, 0x9c, 0x3e,
  0xdb, 0xaf, 0x74, 0xbe, 0x47, 0x7d, 0xbd, 0x3e, 0xa1, 0x23, 0x37, 0xbe,
  0xa5, 0xf8, 0xa5, 0x3e, 0x6f, 0xfa, 0x4c, 0x3e, 0x54, 0x43, 0xd0, 0xbe,
  0x86, 0x05, 0x38, 0xbe, 0x35, 0x16, 0x9b, 0x3d, 0x3d, 0xb8, 0x14, 0xbe,
  0xc3, 0xb2, 0xe1, 0xbd, 0x73, 0x99, 0x85, 0xbe, 0x57, 0x24, 0xb3, 0xbe,
  0x14, 0x52, 0x54, 0xbe, 0x3c, 0x0f, 0x7d, 0xbd, 0x98, 0x61, 0x69, 0x3d,
  0xa4, 0xf5, 0xcb, 0x3e, 0x70, 0x7b, 0xac, 0xbe, 0x8d, 0xe4, 0x06, 0xbf,
  0x74, 0xfc, 0x4f, 0xbe, 0x30, 0x16, 0x3c, 0xbd, 0xe5, 0x14, 0x4f, 0x3e,
  0x6e, 0xf6, 0xfe, 0xbe, 0x08, 0x0e, 0xa5, 0xbc, 0x10, 0x99, 0x8c, 0x3e,
  0xe1, 0x24, 0x8d, 0x3e, 0xc3, 0x95, 0x01, 0xbf, 0x26, 0xdb, 0x09, 0x3f,
  0x6c, 0x0c, 0x3e, 0xbe, 0x10, 0xe7, 0x0a, 0x3f, 0x89, 0x4e, 0xe9, 0xbe,
  0x83, 0xfa, 0xce, 0xbe, 0xaa, 0x1a, 0x1b, 0xbd, 0xd1, 0x59, 0x99, 0x3e,
  0xc4, 0x95, 0x29, 0xbf, 0x48, 0x8b, 0x0f, 0x3e, 0xa1, 0x40, 0x24, 0xbe,
  0x83, 0xb3, 0xb8, 0x3c, 0xd5, 0x7e, 0xcb, 0x3e, 0xd5, 0x38, 0xe6, 0x3e,
  0x81, 0x94, 0xdb, 0x3e, 0x26, 0xcf, 0xa2, 0x3e, 0xfb, 0x5a, 0x76, 0xbd,
  0x9c, 0x60, 0x32, 0xbe, 0xc3, 0x4f, 0xc3, 0x3e, 0xfa, 0x7e, 0x05, 0x3f,
  0x90, 0xd8, 0x5d, 0xbe, 0x07, 0x8a, 0xb7, 0xbe, 0xf6, 0x75, 0x00, 0x3f,
  0xd9, 0x9e, 0x90, 0x3d, 0x84, 0x7e, 0x24, 0x3b, 0x45, 0x22, 0x30, 0x3e,
  0x9d, 0xcb, 0xa7, 0x3c, 0x97, 0x56, 0x8d, 0xbe, 0xed, 0xb0, 0x94, 0x3e,
  0x62, 0xcd, 0x02, 0xbf, 0x82, 0xfd, 0xff, 0xff, 0x04, 0x00, 0x00, 0x00,
  0x90, 0x01, 0x00, 0x00, 0x9e, 0x76, 0xf3, 0x3e, 0xcc, 0x8e, 0x5b, 0xbe,
  0x58, 0x8d, 0x74, 0xbe, 0x53, 0x15, 0x07, 0x3e, 0xdc, 0x95, 0x34, 0xbe,
  0xa9, 0xcd, 0x0c, 0x3f, 0xa2, 0x10, 0x99, 0xbd, 0x4a, 0xc4, 0xcb, 0xbe,
  0x48, 0xcc, 0xdd, 0x3c, 0x97, 0xe0, 0xae, 0xbe, 0xbc, 0x05, 0xab, 0x3e,
  0x83, 0xff, 0xca, 0x3d, 0xf2, 0x64, 0xf7, 0x3d, 0x07, 0x11, 0xb0, 0xbe,
  0x40, 0x34, 0xfa, 0x3e, 0xea, 0x96, 0x8f, 0x3d, 0x6e, 0x1f, 0x3c, 0xbe,
  0xeb, 0x9e, 0xf2, 0xbe, 0x4f, 0x69, 0x98, 0xbe, 0xb6, 0x67, 0x88, 0x3e,
  0xae, 0x8a, 0x9e, 0x3d, 0xa5, 0x9c, 0xb3, 0xbe, 0x17, 0x76, 0x7a, 0x3d,
  0x96, 0x96, 0x7b, 0x3c, 0x7a, 0xef, 0xb7, 0x3e, 0x53, 0x6a, 0x12, 0x3f,
  0x90, 0x94, 0x96, 0xbd, 0xaf, 0x56, 0x81, 0xbd, 0xe3, 0x26, 0xb8, 0x3d,
  0x19, 0xbf, 0x38, 0x3d, 0x24, 0xe6, 0x8b, 0x3e, 0x62, 0xf9, 0x43, 0x3e,
  0xeb, 0xe9, 0x48, 0xbe, 0x83, 0xd9, 0xc4, 0x3e, 0x16, 0xd5, 0x94, 0xbe,
  0x01, 0x45, 0x08, 0x3f, 0x00, 0x41, 0x0c, 0x3f, 0xbb, 0x31, 0xab, 0x3e,
  0xa2, 0xac, 0xd6, 0x3d, 0xdc, 0x0c, 0xb0, 0x3e, 0x72, 0x9c, 0xdb, 0xbe,
  0xfc, 0x54, 0xab, 0xbe, 0xf2, 0x8a, 0x9f, 0x3e, 0x69, 0x0f, 0xe8, 0x3e,
  0x41, 0x33, 0x1b, 0xbe, 0x68, 0x17, 0x50, 0x3e, 0x0b, 0x87, 0x97, 0xbe,
  0x0f, 0xa6, 0x0c, 0xbb, 0x2f, 0x26, 0x5b, 0xbd, 0x05, 0x9c, 0x8f, 0xbe,
  0x19, 0xef, 0x04, 0xbf, 0x02, 0xce, 0xc4, 0x3e, 0x11, 0x44, 0x0d, 0xbf,
  0xf0, 0x7c, 0xe6, 0xbe, 0xfe, 0xe7, 0xa8, 0x3e, 0x90, 0x19, 0xa0, 0x3d,
  0x1b, 0x64, 0xca, 0xbe, 0x81, 0xdc, 0x1d, 0x3c, 0x71, 0xac, 0x41, 0xbe,
  0x62, 0x2f, 0x03, 0x3d, 0xeb, 0xf2, 0x67, 0x3d, 0x23, 0x8a, 0x67, 0x3e,
  0x52, 0xa7, 0x3e, 0xbd, 0xb7, 0xf1, 0xb2, 0xbe, 0x99, 0x9d, 0xb1, 0xbe,
  0x10, 0xb3, 0xd9, 0x3d, 0x7c, 0xc2, 0xc3, 0xbe, 0x16, 0x3a, 0xe2, 0x3e,
  0x82, 0xc3, 0xde, 0xbe, 0x19, 0x8e, 0xe3, 0x3e, 0x87, 0x6a, 0x4e, 0xbe,
  0x75, 0xc0, 0xae, 0xbe, 0x36, 0xb0, 0x44, 0xbe, 0x50, 0xe3, 0xe0, 0x3e,
  0x63, 0x28, 0x93, 0xbe, 0x41, 0xbb, 0xc9, 0x3e, 0xc6, 0x52, 0x1d, 0xbd,
  0x2a, 0xe6, 0x06, 0xbf, 0xfc, 0xb7, 0xfc, 0x3d, 0x1c, 0xe7, 0x08, 0x3e,
  0xdc, 0x7a, 0x1a, 0xbf, 0x48, 0x9e, 0x5f, 0x3e, 0xa8, 0xfd, 0x04, 0xbe,
  0xcf, 0x51, 0x07, 0x3e, 0x1d, 0xe1, 0x1a, 0xbf, 0x89, 0xf1, 0x91, 0xbe,
  0x66, 0x8b, 0x3c, 0x3d, 0x64, 0x8b, 0xdf, 0xbe, 0x7e, 0xe5, 0xee, 0xbe,
  0x67, 0xd3, 0x0a, 0x3f, 0x1b, 0x51, 0x18, 0x3e, 0x23, 0x3c, 0xb7, 0x3e,
  0xb4, 0x17, 0xdc, 0xbe, 0x14, 0xd8, 0xb4, 0x3e, 0x59, 0xa3, 0xb5, 0xbd,
  0x16, 0x96, 0x8d, 0xbe, 0xdb, 0x94, 0xaf, 0x3e, 0x4f, 0xab, 0x47, 0x3e,
  0xf7, 0x9b, 0x2f, 0xbe, 0xca, 0xf0, 0x1f, 0x3e, 0x1e, 0xff, 0xff, 0xff,
  0x04, 0x00, 0x00, 0x00, 0x28, 0x00, 0x00, 0x00, 0xac, 0x28, 0xcf, 0xbe,
  0xe3, 0xc0, 0x36, 0x3d, 0x93, 0xa5, 0x3e, 0xbf, 0xf6, 0xb5, 0x49, 0xbf,
  0x6b, 0xb4, 0x1a, 0xbf, 0xfb, 0x44, 0xcd, 0x3e, 0x02, 0x90, 0x6b, 0xbd,
  0x4e, 0x65, 0xb2, 0x3c, 0xc3, 0x87, 0x3d, 0xbf, 0x2c, 0x51, 0x1a, 0x3f,
  0x52, 0xff, 0xff, 0xff, 0x04, 0x00, 0x00, 0x00, 0x04, 0x00, 0x00, 0x00,
  0x8a, 0xb3, 0x7f, 0x3e, 0x62, 0xff, 0xff, 0xff, 0x04, 0x00, 0x00, 0x00,
  0x28, 0x00, 0x00, 0x00, 0xb6, 0x8f, 0x51, 0x3d, 0xd1, 0xaf, 0x0d, 0xbc,
  0x52, 0xf5, 0xb2, 0x3d, 0x08, 0x0e, 0x8c, 0xbd, 0x7f, 0x94, 0x57, 0xbd,
  0x5d, 0xfb, 0x83, 0xbc, 0x34, 0x1d, 0x01, 0xbd, 0x59, 0xd5, 0xe6, 0xbc,
  0x1a, 0x4a, 0x04, 0x3d, 0xd8, 0x04, 0x02, 0xbd, 0x96, 0xff, 0xff, 0xff,
  0x04, 0x00, 0x00, 0x00, 0x28, 0x00, 0x00, 0x00, 0x10, 0x73, 0x1e, 0x3d,
  0xb7, 0xb6, 0x29, 0x3c, 0x69, 0xb9, 0x30, 0xbe, 0x09, 0xe1, 0x61, 0xbd,
  0x7e, 0xcb, 0xdc, 0xbd, 0x58, 0xd6, 0x22, 0x3d, 0x7f, 0x2e, 0xf1, 0xbc,
  0x11, 0xb7, 0xfa, 0xbd, 0xa0, 0xd6, 0x6d, 0xbd, 0xac, 0x42, 0x28, 0xbc,
  0xca, 0xff, 0xff, 0xff, 0x04, 0x00, 0x00, 0x00, 0x28, 0x00, 0x00, 0x00,
  0x1b, 0x84, 0xf9, 0xbd, 0x5b, 0xa0, 0x08, 0xbe, 0x01, 0x3f, 0x05, 0x3e,
  0xe6, 0x74, 0xe4, 0xbc, 0xee, 0x44, 0xa8, 0xbd, 0x0f, 0x6e, 0x11, 0x3d,
  0x2b, 0xd4, 0xa6, 0x3c, 0x4e, 0xef, 0x38, 0xbe, 0x04, 0x17, 0xe1, 0xbd,
  0x4c, 0xff, 0xc4, 0x3d, 0x00, 0x00, 0x06, 0x00, 0x08, 0x00, 0x04, 0x00,
  0x06, 0x00, 0x00, 0x00, 0x04, 0x00, 0x00, 0x00, 0x28, 0x00, 0x00, 0x00,
  0x45, 0xdb, 0x13, 0x3d, 0xcc, 0x9b, 0xd2, 0xbe, 0x35, 0x56, 0x3c, 0x3e,
  0xa4, 0x7b, 0x00, 0xbf, 0x1e, 0xab, 0xcc, 0x3e, 0x02, 0x33, 0x55, 0xbe,
  0x7a, 0x5b, 0xed, 0xbe, 0x1d, 0x27, 0x79, 0xbe, 0xee, 0x0c, 0x11, 0xbf,
  0xc9, 0xe1, 0x02, 0xbf, 0xb8, 0xf5, 0xff, 0xff, 0xbc, 0xf5, 0xff, 0xff,
  0x0f, 0x00, 0x00, 0x00, 0x4d, 0x4c, 0x49, 0x52, 0x20, 0x43, 0x6f, 0x6e,
  0x76, 0x65, 0x72, 0x74, 0x65, 0x64, 0x2e, 0x00, 0x01, 0x00, 0x00, 0x00,
  0x14, 0x00, 0x00, 0x00, 0x00, 0x00, 0x0e, 0x00, 0x18, 0x00, 0x14, 0x00,
  0x10, 0x00, 0x0c, 0x00, 0x08, 0x00, 0x04, 0x00, 0x0e, 0x00, 0x00, 0x00,
  0x14, 0x00, 0x00, 0x00, 0x1c, 0x00, 0x00, 0x00, 0x00, 0x02, 0x00, 0x00,
  0x04, 0x02, 0x00, 0x00, 0x08, 0x02, 0x00, 0x00, 0x04, 0x00, 0x00, 0x00,
  0x6d, 0x61, 0x69, 0x6e, 0x00, 0x00, 0x00, 0x00, 0x0a, 0x00, 0x00, 0x00,
  0xb4, 0x01, 0x00, 0x00, 0x70, 0x01, 0x00, 0x00, 0x4c, 0x01, 0x00, 0x00,
  0x0c, 0x01, 0x00, 0x00, 0xe8, 0x00, 0x00, 0x00, 0xb4, 0x00, 0x00, 0x00,
  0x90, 0x00, 0x00, 0x00, 0x5c, 0x00, 0x00, 0x00, 0x38, 0x00, 0x00, 0x00,
  0x04, 0x00, 0x00, 0x00, 0x82, 0xfe, 0xff, 0xff, 0x10, 0x00, 0x00, 0x00,
  0x00, 0x00, 0x00, 0x08, 0x0c, 0x00, 0x00, 0x00, 0x10, 0x00, 0x00, 0x00,
  0x50, 0xf6, 0xff, 0xff, 0x01, 0x00, 0x00, 0x00, 0x15, 0x00, 0x00, 0x00,
  0x03, 0x00, 0x00, 0x00, 0x14, 0x00, 0x00, 0x00, 0x0b, 0x00, 0x00, 0x00,
  0x05, 0x00, 0x00, 0x00, 0x0e, 0xff, 0xff, 0xff, 0x0c, 0x00, 0x00, 0x00,
  0x10, 0x00, 0x00, 0x00, 0x01, 0x00, 0x00, 0x00, 0x01, 0x00, 0x00, 0x00,
  0x14, 0x00, 0x00, 0x00, 0x01, 0x00, 0x00, 0x00, 0x13, 0x00, 0x00, 0x00,
  0xd2, 0xfe, 0xff, 0xff, 0x10, 0x00, 0x00, 0x00, 0x00, 0x00, 0x00, 0x08,
  0x0c, 0x00, 0x00, 0x00, 0x10, 0x00, 0x00, 0x00, 0xa0, 0xf6, 0xff, 0xff,
  0x01, 0x00, 0x00, 0x00, 0x13, 0x00, 0x00, 0x00, 0x03, 0x00, 0x00, 0x00,
  0x12, 0x00, 0x00, 0x00, 0x0a, 0x00, 0x00, 0x00, 0x04, 0x00, 0x00, 0x00,
  0x5e, 0xff, 0xff, 0xff, 0x0c, 0x00, 0x00, 0x00, 0x10, 0x00, 0x00, 0x00,
  0x01, 0x00, 0x00, 0x00, 0x01, 0x00, 0x00, 0x00, 0x12, 0x00, 0x00, 0x00,
  0x01, 0x00, 0x00, 0x00, 0x11, 0x00, 0x00, 0x00, 0x22, 0xff, 0xff, 0xff,
  0x10, 0x00, 0x00, 0x00, 0x00, 0x00, 0x00, 0x08, 0x0c, 0x00, 0x00, 0x00,
  0x10, 0x00, 0x00, 0x00, 0xf0, 0xf6, 0xff, 0xff, 0x01, 0x00, 0x00, 0x00,
  0x11, 0x00, 0x00, 0x00, 0x03, 0x00, 0x00, 0x00, 0x10, 0x00, 0x00, 0x00,
  0x09, 0x00, 0x00, 0x00, 0x03, 0x00, 0x00, 0x00, 0xae, 0xff, 0xff, 0xff,
  0x0c, 0x00, 0x00, 0x00, 0x10, 0x00, 0x00, 0x00, 0x01, 0x00, 0x00, 0x00,
  0x01, 0x00, 0x00, 0x00, 0x10, 0x00, 0x00, 0x00, 0x01, 0x00, 0x00, 0x00,
  0x0f, 0x00, 0x00, 0x00, 0x72, 0xff, 0xff, 0xff, 0x10, 0x00, 0x00, 0x00,
  0x00, 0x00, 0x00, 0x08, 0x0c, 0x00, 0x00, 0x00, 0x10, 0x00, 0x00, 0x00,
  0x40, 0xf7, 0xff, 0xff, 0x01, 0x00, 0x00, 0x00, 0x0f, 0x00, 0x00, 0x00,
  0x03, 0x00, 0x00, 0x00, 0x0e, 0x00, 0x00, 0x00, 0x08, 0x00, 0x00, 0x00,
  0x02, 0x00, 0x00, 0x00, 0x00, 0x00, 0x0a, 0x00, 0x10, 0x00, 0x0c, 0x00,
  0x08, 0x00, 0x04, 0x00, 0x0a, 0x00, 0x00, 0x00, 0x0c, 0x00, 0x00, 0x00,
  0x10, 0x00, 0x00, 0x00, 0x01, 0x00, 0x00, 0x00, 0x01, 0x00, 0x00, 0x00,
  0x0e, 0x00, 0x00, 0x00, 0x01, 0x00, 0x00, 0x00, 0x0d, 0x00, 0x00, 0x00,
  0xce, 0xff, 0xff, 0xff, 0x10, 0x00, 0x00, 0x00, 0x00, 0x00, 0x00, 0x08,
  0x0c, 0x00, 0x00, 0x00, 0x10, 0x00, 0x00, 0x00, 0x9c, 0xf7, 0xff, 0xff,
  0x01, 0x00, 0x00, 0x00, 0x0d, 0x00, 0x00, 0x00, 0x03, 0x00, 0x00, 0x00,
  0x0c, 0x00, 0x00, 0x00, 0x07, 0x00, 0x00, 0x00, 0x01, 0x00, 0x00, 0x00,
  0x00, 0x00, 0x0e, 0x00, 0x14, 0x00, 0x00, 0x00, 0x10, 0x00, 0x0c, 0x00,
  0x0b, 0x00, 0x04, 0x00, 0x0e, 0x00, 0x00, 0x00, 0x10, 0x00, 0x00, 0x00,
  0x00, 0x00, 0x00, 0x08, 0x0c, 0x00, 0x00, 0x00, 0x10, 0x00, 0x00, 0x00,
  0xdc, 0xf7, 0xff, 0xff, 0x01, 0x00, 0x00, 0x00, 0x0c, 0x00, 0x00, 0x00,
  0x03, 0x00, 0x00, 0x00, 0x00, 0x00, 0x00, 0x00, 0x06, 0x00, 0x00, 0x00,
  0xff, 0xff, 0xff, 0xff, 0x01, 0x00, 0x00, 0x00, 0x15, 0x00, 0x00, 0x00,
  0x01, 0x00, 0x00, 0x00, 0x00, 0x00, 0x00, 0x00, 0x16, 0x00, 0x00, 0x00,
  0xcc, 0x07, 0x00, 0x00, 0x50, 0x07, 0x00, 0x00, 0xe0, 0x06, 0x00, 0x00,
  0x88, 0x06, 0x00, 0x00, 0x30, 0x06, 0x00, 0x00, 0xd8, 0x05, 0x00, 0x00,
  0x90, 0x05, 0x00, 0x00, 0x44, 0x05, 0x00, 0x00, 0xf8, 0x04, 0x00, 0x00,
  0xac, 0x04, 0x00, 0x00, 0x60, 0x04, 0x00, 0x00, 0x14, 0x04, 0x00, 0x00,
  0xb8, 0x03, 0x00, 0x00, 0x28, 0x03, 0x00, 0x00, 0xd0, 0x02, 0x00, 0x00,
  0x58, 0x02, 0x00, 0x00, 0x00, 0x02, 0x00, 0x00, 0x88, 0x01, 0x00, 0x00,
  0x30, 0x01, 0x00, 0x00, 0xb8, 0x00, 0x00, 0x00, 0x60, 0x00, 0x00, 0x00,
  0x04, 0x00, 0x00, 0x00, 0xa2, 0xf8, 0xff, 0xff, 0x00, 0x00, 0x00, 0x01,
  0x14, 0x00, 0x00, 0x00, 0x1c, 0x00, 0x00, 0x00, 0x1c, 0x00, 0x00, 0x00,
  0x16, 0x00, 0x00, 0x00, 0x34, 0x00, 0x00, 0x00, 0x02, 0x00, 0x00, 0x00,
  0xff, 0xff, 0xff, 0xff, 0x01, 0x00, 0x00, 0x00, 0x8c, 0xf8, 0xff, 0xff,
  0x19, 0x00, 0x00, 0x00, 0x53, 0x74, 0x61, 0x74, 0x65, 0x66, 0x75, 0x6c,
  0x50, 0x61, 0x72, 0x74, 0x69, 0x74, 0x69, 0x6f, 0x6e, 0x65, 0x64, 0x43,
  0x61, 0x6c, 0x6c, 0x3a, 0x30, 0x00, 0x00, 0x00, 0x02, 0x00, 0x00, 0x00,
  0x01, 0x00, 0x00, 0x00, 0x01, 0x00, 0x00, 0x00, 0xfa, 0xf8, 0xff, 0xff,
  0x00, 0x00, 0x00, 0x01, 0x14, 0x00, 0x00, 0x00, 0x1c, 0x00, 0x00, 0x00,
  0x1c, 0x00, 0x00, 0x00, 0x15, 0x00, 0x00, 0x00, 0x30, 0x00, 0x00, 0x00,
  0x02, 0x00, 0x00, 0x00, 0xff, 0xff, 0xff, 0xff, 0x0a, 0x00, 0x00, 0x00,
  0xe4, 0xf8, 0xff, 0xff, 0x17, 0x00, 0x00, 0x00, 0x73, 0x65, 0x71, 0x75,
  0x65, 0x6e, 0x74, 0x69, 0x61, 0x6c, 0x2f, 0x64, 0x65, 0x6e, 0x73, 0x65,
  0x5f, 0x34, 0x2f, 0x54, 0x61, 0x6e, 0x68, 0x00, 0x02, 0x00, 0x00, 0x00,
  0x01, 0x00, 0x00, 0x00, 0x0a, 0x00, 0x00, 0x00, 0x4e, 0xf9, 0xff, 0xff,
  0x00, 0x00, 0x00, 0x01, 0x14, 0x00, 0x00, 0x00, 0x1c, 0x00, 0x00, 0x00,
  0x1c, 0x00, 0x00, 0x00, 0x14, 0x00, 0x00, 0x00, 0x50, 0x00, 0x00, 0x00,
  0x02, 0x00, 0x00, 0x00, 0xff, 0xff, 0xff, 0xff, 0x0a, 0x00, 0x00, 0x00,
  0x38, 0xf9, 0xff, 0xff, 0x34, 0x00, 0x00, 0x00, 0x73, 0x65, 0x71, 0x75,
  0x65, 0x6e, 0x74, 0x69, 0x61, 0x6c, 0x2f, 0x64, 0x65, 0x6e, 0x73, 0x65,
  0x5f, 0x34, 0x2f, 0x4d, 0x61, 0x74, 0x4d, 0x75, 0x6c, 0x3b, 0x73, 0x65,
  0x71, 0x75, 0x65, 0x6e, 0x74, 0x69, 0x61, 0x6c, 0x2f, 0x64, 0x65, 0x6e,
  0x73, 0x65, 0x5f, 0x34, 0x2f, 0x42, 0x69, 0x61, 0x73, 0x41, 0x64, 0x64,
  0x00, 0x00, 0x00, 0x00, 0x02, 0x00, 0x00, 0x00, 0x01, 0x00, 0x00, 0x00,
  0x0a, 0x00, 0x00, 0x00, 0xc2, 0xf9, 0xff, 0xff, 0x00, 0x00, 0x00, 0x01,
  0x14, 0x00, 0x00, 0x00, 0x1c, 0x00, 0x00, 0x00, 0x1c, 0x00, 0x00, 0x00,
  0x13, 0x00, 0x00, 0x00, 0x30, 0x00, 0x00, 0x00, 0x02, 0x00, 0x00, 0x00,
  0xff, 0xff, 0xff, 0xff, 0x0a, 0x00, 0x00, 0x00, 0xac, 0xf9, 0xff, 0xff,
  0x17, 0x00, 0x00, 0x00, 0x73, 0x65, 0x71, 0x75, 0x65, 0x6e, 0x74, 0x69,
  0x61, 0x6c, 0x2f, 0x64, 0x65, 0x6e, 0x73, 0x65, 0x5f, 0x33, 0x2f, 0x54,
  0x61, 0x6e, 0x68, 0x00, 0x02, 0x00, 0x00, 0x00, 0x01, 0x00, 0x00, 0x00,
  0x0a, 0x00, 0x00, 0x00, 0x16, 0xfa, 0xff, 0xff, 0x00, 0x00, 0x00, 0x01,
  0x14, 0x00, 0x00, 0x00, 0x1c, 0x00, 0x00, 0x00, 0x1c, 0x00, 0x00, 0x00,
  0x12, 0x00, 0x00, 0x00, 0x50, 0x00, 0x00, 0x00, 0x02, 0x00, 0x00, 0x00,
  0xff, 0xff, 0xff, 0xff, 0x0a, 0x00, 0x00, 0x00, 0x00, 0xfa, 0xff, 0xff,
  0x34, 0x00, 0x00, 0x00, 0x73, 0x65, 0x71, 0x75, 0x65, 0x6e, 0x74, 0x69,
  0x61, 0x6c, 0x2f, 0x64, 0x65, 0x6e, 0x73, 0x65, 0x5f, 0x33, 0x2f, 0x4d,
  0x61, 0x74, 0x4d, 0x75, 0x6c, 0x3b, 0x73, 0x65, 0x71, 0x75, 0x65, 0x6e,
  0x74, 0x69, 0x61, 0x6c, 0x2f, 0x64, 0x65, 0x6e, 0x73, 0x65, 0x5f, 0x33,
  0x2f, 0x42, 0x69, 0x61, 0x73, 0x41, 0x64, 0x64, 0x00, 0x00, 0x00, 0x00,
  0x02, 0x00, 0x00, 0x00, 0x01, 0x00, 0x00, 0x00, 0x0a, 0x00, 0x00, 0x00,
  0x8a, 0xfa, 0xff, 0xff, 0x00, 0x00, 0x00, 0x01, 0x14, 0x00, 0x00, 0x00,
  0x1c, 0x00, 0x00, 0x00, 0x1c, 0x00, 0x00, 0x00, 0x11, 0x00, 0x00, 0x00,
  0x30, 0x00, 0x00, 0x00, 0x02, 0x00, 0x00, 0x00, 0xff, 0xff, 0xff, 0xff,
  0x0a, 0x00, 0x00, 0x00, 0x74, 0xfa, 0xff, 0xff, 0x17, 0x00, 0x00, 0x00,
  0x73, 0x65, 0x71, 0x75, 0x65, 0x6e, 0x74, 0x69, 0x61, 0x6c, 0x2f, 0x64,
  0x65, 0x6e, 0x73, 0x65, 0x5f, 0x32, 0x2f, 0x54, 0x61, 0x6e, 0x68, 0x00,
  0x02, 0x00, 0x00, 0x00, 0x01, 0x00, 0x00, 0x00, 0x0a, 0x00, 0x00, 0x00,
  0xde, 0xfa, 0xff, 0xff, 0x00, 0x00, 0x00, 0x01, 0x14, 0x00, 0x00, 0x00,
  0x1c, 0x00, 0x00, 0x00, 0x1c, 0x00, 0x00, 0x00, 0x10, 0x00, 0x00, 0x00,
  0x50, 0x00, 0x00, 0x00, 0x02, 0x00, 0x00, 0x00, 0xff, 0xff, 0xff, 0xff,
  0x0a, 0x00, 0x00, 0x00, 0xc8, 0xfa, 0xff, 0xff, 0x34, 0x00, 0x00, 0x00,
  0x73, 0x65, 0x71, 0x75, 0x65, 0x6e, 0x74, 0x69, 0x61, 0x6c, 0x2f, 0x64,
  0x65, 0x6e, 0x73, 0x65, 0x5f, 0x32, 0x2f, 0x4d, 0x61, 0x74, 0x4d, 0x75,
  0x6c, 0x3b, 0x73, 0x65, 0x71, 0x75, 0x65, 0x6e, 0x74, 0x69, 0x61, 0x6c,
  0x2f, 0x64, 0x65, 0x6e, 0x73, 0x65, 0x5f, 0x32, 0x2f, 0x42, 0x69, 0x61,
  0x73, 0x41, 0x64, 0x64, 0x00, 0x00, 0x00, 0x00, 0x02, 0x00, 0x00, 0x00,
  0x01, 0x00, 0x00, 0x00, 0x0a, 0x00, 0x00, 0x00, 0x52, 0xfb, 0xff, 0xff,
  0x00, 0x00, 0x00, 0x01, 0x14, 0x00, 0x00, 0x00, 0x1c, 0x00, 0x00, 0x00,
  0x1c, 0x00, 0x00, 0x00, 0x0f, 0x00, 0x00, 0x00, 0x30, 0x00, 0x00, 0x00,
  0x02, 0x00, 0x00, 0x00, 0xff, 0xff, 0xff, 0xff, 0x0a, 0x00, 0x00, 0x00,
  0x3c, 0xfb, 0xff, 0xff, 0x17, 0x00, 0x00, 0x00, 0x73, 0x65, 0x71, 0x75,
  0x65, 0x6e, 0x74, 0x69, 0x61, 0x6c, 0x2f, 0x64, 0x65, 0x6e, 0x73, 0x65,
  0x5f, 0x31, 0x2f, 0x54, 0x61, 0x6e, 0x68, 0x00, 0x02, 0x00, 0x00, 0x00,
  0x01, 0x00, 0x00, 0x00, 0x0a, 0x00, 0x00, 0x00, 0xa6, 0xfb, 0xff, 0xff,
  0x00, 0x00, 0x00, 0x01, 0x14, 0x00, 0x00, 0x00, 0x1c, 0x00, 0x00, 0x00,
  0x1c, 0x00, 0x00, 0x00, 0x0e, 0x00, 0x00, 0x00, 0x68, 0x00, 0x00, 0x00,
  0x02, 0x00, 0x00, 0x00, 0xff, 0xff, 0xff, 0xff, 0x0a, 0x00, 0x00, 0x00,
  0x90, 0xfb, 0xff, 0xff, 0x4d, 0x00, 0x00, 0x00, 0x73, 0x65, 0x71, 0x75,
  0x65, 0x6e, 0x74, 0x69, 0x61, 0x6c, 0x2f, 0x64, 0x65, 0x6e, 0x73, 0x65,
  0x2f, 0x42, 0x69, 0x61, 0x73, 0x41, 0x64, 0x64, 0x3b, 0x73, 0x65, 0x71,
  0x75, 0x65, 0x6e, 0x74, 0x69, 0x61, 0x6c, 0x2f, 0x64, 0x65, 0x6e, 0x73,
  0x65, 0x5f, 0x31, 0x2f, 0x4d, 0x61, 0x74, 0x4d, 0x75, 0x6c, 0x3b, 0x73,
  0x65, 0x71, 0x75, 0x65, 0x6e, 0x74, 0x69, 0x61, 0x6c, 0x2f, 0x64, 0x65,
  0x6e, 0x73, 0x65, 0x5f, 0x31, 0x2f, 0x42, 0x69, 0x61, 0x73, 0x41, 0x64,
  0x64, 0x00, 0x00, 0x00, 0x02, 0x00, 0x00, 0x00, 0x01, 0x00, 0x00, 0x00,
  0x0a, 0x00, 0x00, 0x00, 0x32, 0xfc, 0xff, 0xff, 0x00, 0x00, 0x00, 0x01,
  0x14, 0x00, 0x00, 0x00, 0x1c, 0x00, 0x00, 0x00, 0x1c, 0x00, 0x00, 0x00,
  0x0d, 0x00, 0x00, 0x00, 0x34, 0x00, 0x00, 0x00, 0x02, 0x00, 0x00, 0x00,
  0xff, 0xff, 0xff, 0xff, 0x0a, 0x00, 0x00, 0x00, 0x1c, 0xfc, 0xff, 0xff,
  0x18, 0x00, 0x00, 0x00, 0x73, 0x65, 0x71, 0x75, 0x65, 0x6e, 0x74, 0x69,
  0x61, 0x6c, 0x2f, 0x64, 0x65, 0x6e, 0x73, 0x65, 0x2f, 0x4d, 0x61, 0x74,
  0x4d, 0x75, 0x6c, 0x32, 0x00, 0x00, 0x00, 0x00, 0x02, 0x00, 0x00, 0x00,
  0x01, 0x00, 0x00, 0x00, 0x0a, 0x00, 0x00, 0x00, 0x02, 0xfd, 0xff, 0xff,
  0x00, 0x00, 0x00, 0x01, 0x10, 0x00, 0x00, 0x00, 0x10, 0x00, 0x00, 0x00,
  0x0c, 0x00, 0x00, 0x00, 0x28, 0x00, 0x00, 0x00, 0x64, 0xfc, 0xff, 0xff,
  0x19, 0x00, 0x00, 0x00, 0x73, 0x65, 0x71, 0x75, 0x65, 0x6e, 0x74, 0x69,
  0x61, 0x6c, 0x2f, 0x64, 0x65, 0x6e, 0x73, 0x65, 0x5f, 0x35, 0x2f, 0x4d,
  0x61, 0x74, 0x4d, 0x75, 0x6c, 0x00, 0x00, 0x00, 0x02, 0x00, 0x00, 0x00,
  0x01, 0x00, 0x00, 0x00, 0x0a, 0x00, 0x00, 0x00, 0x4a, 0xfd, 0xff, 0xff,
  0x00, 0x00, 0x00, 0x01, 0x10, 0x00, 0x00, 0x00, 0x10, 0x00, 0x00, 0x00,
  0x0b, 0x00, 0x00, 0x00, 0x28, 0x00, 0x00, 0x00, 0xac, 0xfc, 0xff, 0xff,
  0x19, 0x00, 0x00, 0x00, 0x73, 0x65, 0x71, 0x75, 0x65, 0x6e, 0x74, 0x69,
  0x61, 0x6c, 0x2f, 0x64, 0x65, 0x6e, 0x73, 0x65, 0x5f, 0x34, 0x2f, 0x4d,
  0x61, 0x74, 0x4d, 0x75, 0x6c, 0x00, 0x00, 0x00, 0x02, 0x00, 0x00, 0x00,
  0x0a, 0x00, 0x00, 0x00, 0x0a, 0x00, 0x00, 0x00, 0x92, 0xfd, 0xff, 0xff,
  0x00, 0x00, 0x00, 0x01, 0x10, 0x00, 0x00, 0x00, 0x10, 0x00, 0x00, 0x00,
  0x0a, 0x00, 0x00, 0x00, 0x28, 0x00, 0x00, 0x00, 0xf4, 0xfc, 0xff, 0xff,
  0x19, 0x00, 0x00, 0x00, 0x73, 0x65, 0x71, 0x75, 0x65, 0x6e, 0x74, 0x69,
  0x61, 0x6c, 0x2f, 0x64, 0x65, 0x6e, 0x73, 0x65, 0x5f, 0x33, 0x2f, 0x4d,
  0x61, 0x74, 0x4d, 0x75, 0x6c, 0x00, 0x00, 0x00, 0x02, 0x00, 0x00, 0x00,
  0x0a, 0x00, 0x00, 0x00, 0x0a, 0x00, 0x00, 0x00, 0xda, 0xfd, 0xff, 0xff,
  0x00, 0x00, 0x00, 0x01, 0x10, 0x00, 0x00, 0x00, 0x10, 0x00, 0x00, 0x00,
  0x09, 0x00, 0x00, 0x00, 0x28, 0x00, 0x00, 0x00, 0x3c, 0xfd, 0xff, 0xff,
  0x19, 0x00, 0x00, 0x00, 0x73, 0x65, 0x71, 0x75, 0x65, 0x6e, 0x74, 0x69,
  0x61, 0x6c, 0x2f, 0x64, 0x65, 0x6e, 0x73, 0x65, 0x5f, 0x32, 0x2f, 0x4d,
  0x61, 0x74, 0x4d, 0x75, 0x6c, 0x00, 0x00, 0x00, 0x02, 0x00, 0x00, 0x00,
  0x0a, 0x00, 0x00, 0x00, 0x0a, 0x00, 0x00, 0x00, 0x22, 0xfe, 0xff, 0xff,
  0x00, 0x00, 0x00, 0x01, 0x10, 0x00, 0x00, 0x00, 0x10, 0x00, 0x00, 0x00,
  0x08, 0x00, 0x00, 0x00, 0x28, 0x00, 0x00, 0x00, 0x84, 0xfd, 0xff, 0xff,
  0x19, 0x00, 0x00, 0x00, 0x73, 0x65, 0x71, 0x75, 0x65, 0x6e, 0x74, 0x69,
  0x61, 0x6c, 0x2f, 0x64, 0x65, 0x6e, 0x73, 0x65, 0x5f, 0x31, 0x2f, 0x4d,
  0x61, 0x74, 0x4d, 0x75, 0x6c, 0x00, 0x00, 0x00, 0x02, 0x00, 0x00, 0x00,
  0x0a, 0x00, 0x00, 0x00, 0x0a, 0x00, 0x00, 0x00, 0x6a, 0xfe, 0xff, 0xff,
  0x00, 0x00, 0x00, 0x01, 0x10, 0x00, 0x00, 0x00, 0x10, 0x00, 0x00, 0x00,
  0x07, 0x00, 0x00, 0x00, 0x24, 0x00, 0x00, 0x00, 0xcc, 0xfd, 0xff, 0xff,
  0x17, 0x00, 0x00, 0x00, 0x73, 0x65, 0x71, 0x75, 0x65, 0x6e, 0x74, 0x69,
  0x61, 0x6c, 0x2f, 0x64, 0x65, 0x6e, 0x73, 0x65, 0x2f, 0x4d, 0x61, 0x74,
  0x4d, 0x75, 0x6c, 0x00, 0x02, 0x00, 0x00, 0x00, 0x0a, 0x00, 0x00, 0x00,
  0x01, 0x00, 0x00, 0x00, 0xae, 0xfe, 0xff, 0xff, 0x00, 0x00, 0x00, 0x01,
  0x10, 0x00, 0x00, 0x00, 0x10, 0x00, 0x00, 0x00, 0x06, 0x00, 0x00, 0x00,
  0x38, 0x00, 0x00, 0x00, 0x10, 0xfe, 0xff, 0xff, 0x29, 0x00, 0x00, 0x00,
  0x73, 0x65, 0x71, 0x75, 0x65, 0x6e, 0x74, 0x69, 0x61, 0x6c, 0x2f, 0x64,
  0x65, 0x6e, 0x73, 0x65, 0x5f, 0x35, 0x2f, 0x42, 0x69, 0x61, 0x73, 0x41,
  0x64, 0x64, 0x2f, 0x52, 0x65, 0x61, 0x64, 0x56, 0x61, 0x72, 0x69, 0x61,
  0x62, 0x6c, 0x65, 0x4f, 0x70, 0x00, 0x00, 0x00, 0x01, 0x00, 0x00, 0x00,
  0x01, 0x00, 0x00, 0x00, 0x02, 0xff, 0xff, 0xff, 0x00, 0x00, 0x00, 0x01,
  0x10, 0x00, 0x00, 0x00, 0x10, 0x00, 0x00, 0x00, 0x05, 0x00, 0x00, 0x00,
  0x38, 0x00, 0x00, 0x00, 0x64, 0xfe, 0xff, 0xff, 0x29, 0x00, 0x00, 0x00,
  0x73, 0x65, 0x71, 0x75, 0x65, 0x6e, 0x74, 0x69, 0x61, 0x6c, 0x2f, 0x64,
  0x65, 0x6e, 0x73, 0x65, 0x5f, 0x34, 0x2f, 0x42, 0x69, 0x61, 0x73, 0x41,
  0x64, 0x64, 0x2f, 0x52, 0x65, 0x61, 0x64, 0x56, 0x61, 0x72, 0x69, 0x61,
  0x62, 0x6c, 0x65, 0x4f, 0x70, 0x00, 0x00, 0x00, 0x01, 0x00, 0x00, 0x00,
  0x0a, 0x00, 0x00, 0x00, 0x56, 0xff, 0xff, 0xff, 0x00, 0x00, 0x00, 0x01,
  0x10, 0x00, 0x00, 0x00, 0x10, 0x00, 0x00, 0x00, 0x04, 0x00, 0x00, 0x00,
  0x38, 0x00, 0x00, 0x00, 0xb8, 0xfe, 0xff, 0xff, 0x29, 0x00, 0x00, 0x00,
  0x73, 0x65, 0x71, 0x75, 0x65, 0x6e, 0x74, 0x69, 0x61, 0x6c, 0x2f, 0x64,
  0x65, 0x6e, 0x73, 0x65, 0x5f, 0x33, 0x2f, 0x42, 0x69, 0x61, 0x73, 0x41,
  0x64, 0x64, 0x2f, 0x52, 0x65, 0x61, 0x64, 0x56, 0x61, 0x72, 0x69, 0x61,
  0x62, 0x6c, 0x65, 0x4f, 0x70, 0x00, 0x00, 0x00, 0x01, 0x00, 0x00, 0x00,
  0x0a, 0x00, 0x00, 0x00, 0xaa, 0xff, 0xff, 0xff, 0x00, 0x00, 0x00, 0x01,
  0x10, 0x00, 0x00, 0x00, 0x10, 0x00, 0x00, 0x00, 0x03, 0x00, 0x00, 0x00,
  0x38, 0x00, 0x00, 0x00, 0x0c, 0xff, 0xff, 0xff, 0x29, 0x00, 0x00, 0x00,
  0x73, 0x65, 0x71, 0x75, 0x65, 0x6e, 0x74, 0x69, 0x61, 0x6c, 0x2f, 0x64,
  0x65, 0x6e, 0x73, 0x65, 0x5f, 0x32, 0x2f, 0x42, 0x69, 0x61, 0x73, 0x41,
  0x64, 0x64, 0x2f, 0x52, 0x65, 0x61, 0x64, 0x56, 0x61, 0x72, 0x69, 0x61,
  0x62, 0x6c, 0x65, 0x4f, 0x70, 0x00, 0x00, 0x00, 0x01, 0x00, 0x00, 0x00,
  0x0a, 0x00, 0x00, 0x00, 0x00, 0x00, 0x16, 0x00, 0x18, 0x00, 0x14, 0x00,
  0x00, 0x00, 0x10, 0x00, 0x0c, 0x00, 0x08, 0x00, 0x00, 0x00, 0x00, 0x00,
  0x00, 0x00, 0x07, 0x00, 0x16, 0x00, 0x00, 0x00, 0x00, 0x00, 0x00, 0x01,
  0x10, 0x00, 0x00, 0x00, 0x10, 0x00, 0x00, 0x00, 0x02, 0x00, 0x00, 0x00,
  0x44, 0x00, 0x00, 0x00, 0x78, 0xff, 0xff, 0xff, 0x34, 0x00, 0x00, 0x00,
  0x73, 0x65, 0x71, 0x75, 0x65, 0x6e, 0x74, 0x69, 0x61, 0x6c, 0x2f, 0x64,
  0x65, 0x6e, 0x73, 0x65, 0x5f, 0x31, 0x2f, 0x4d, 0x61, 0x74, 0x4d, 0x75,
  0x6c, 0x3b, 0x73, 0x65, 0x71, 0x75, 0x65, 0x6e, 0x74, 0x69, 0x61, 0x6c,
  0x2f, 0x64, 0x65, 0x6e, 0x73, 0x65, 0x5f, 0x31, 0x2f, 0x42, 0x69, 0x61,
  0x73, 0x41, 0x64, 0x64, 0x00, 0x00, 0x00, 0x00, 0x01, 0x00, 0x00, 0x00,
  0x0a, 0x00, 0x00, 0x00, 0x00, 0x00, 0x16, 0x00, 0x1c, 0x00, 0x18, 0x00,
  0x00, 0x00, 0x14, 0x00, 0x10, 0x00, 0x0c, 0x00, 0x00, 0x00, 0x00, 0x00,
  0x08, 0x00, 0x07, 0x00, 0x16, 0x00, 0x00, 0x00, 0x00, 0x00, 0x00, 0x01,
  0x14, 0x00, 0x00, 0x00, 0x20, 0x00, 0x00, 0x00, 0x20, 0x00, 0x00, 0x00,
  0x01, 0x00, 0x00, 0x00, 0x3c, 0x00, 0x00, 0x00, 0x02, 0x00, 0x00, 0x00,
  0xff, 0xff, 0xff, 0xff, 0x01, 0x00, 0x00, 0x00, 0x04, 0x00, 0x04, 0x00,
  0x04, 0x00, 0x00, 0x00, 0x1d, 0x00, 0x00, 0x00, 0x73, 0x65, 0x72, 0x76,
  0x69, 0x6e, 0x67, 0x5f, 0x64, 0x65, 0x66, 0x61, 0x75, 0x6c, 0x74, 0x5f,
  0x64, 0x65, 0x6e, 0x73, 0x65, 0x5f, 0x69, 0x6e, 0x70, 0x75, 0x74, 0x3a,
  0x30, 0x00, 0x00, 0x00, 0x02, 0x00, 0x00, 0x00, 0x01, 0x00, 0x00, 0x00,
  0x01, 0x00, 0x00, 0x00, 0x02, 0x00, 0x00, 0x00, 0x20, 0x00, 0x00, 0x00,
  0x04, 0x00, 0x00, 0x00, 0xf4, 0xff, 0xff, 0xff, 0x1c, 0x00, 0x00, 0x00,
  0x00, 0x00, 0x00, 0x1c, 0x0c, 0x00, 0x0c, 0x00, 0x0b, 0x00, 0x00, 0x00,
  0x00, 0x00, 0x04, 0x00, 0x0c, 0x00, 0x00, 0x00, 0x09, 0x00, 0x00, 0x00,
  0x00, 0x00, 0x00, 0x09
};
unsigned int models_sinemodel_tflite_len = 5248;
