unsigned char models_sinemodel_tflite[] = {
  0x1c, 0x00, 0x00, 0x00, 0x54, 0x46, 0x4c, 0x33, 0x14, 0x00, 0x20, 0x00,
  0x1c, 0x00, 0x18, 0x00, 0x14, 0x00, 0x10, 0x00, 0x0c, 0x00, 0x00, 0x00,
  0x08, 0x00, 0x04, 0x00, 0x14, 0x00, 0x00, 0x00, 0x1c, 0x00, 0x00, 0x00,
  0x84, 0x00, 0x00, 0x00, 0xdc, 0x00, 0x00, 0x00, 0xa4, 0x08, 0x00, 0x00,
  0xb4, 0x08, 0x00, 0x00, 0x14, 0x13, 0x00, 0x00, 0x03, 0x00, 0x00, 0x00,
  0x01, 0x00, 0x00, 0x00, 0x04, 0x00, 0x00, 0x00, 0xd6, 0xf5, 0xff, 0xff,
  0x0c, 0x00, 0x00, 0x00, 0x1c, 0x00, 0x00, 0x00, 0x38, 0x00, 0x00, 0x00,
  0x0f, 0x00, 0x00, 0x00, 0x73, 0x65, 0x72, 0x76, 0x69, 0x6e, 0x67, 0x5f,
  0x64, 0x65, 0x66, 0x61, 0x75, 0x6c, 0x74, 0x00, 0x01, 0x00, 0x00, 0x00,
  0x04, 0x00, 0x00, 0x00, 0x98, 0xff, 0xff, 0xff, 0x15, 0x00, 0x00, 0x00,
  0x04, 0x00, 0x00, 0x00, 0x07, 0x00, 0x00, 0x00, 0x64, 0x65, 0x6e, 0x73,
  0x65, 0x5f, 0x35, 0x00, 0x01, 0x00, 0x00, 0x00, 0x04, 0x00, 0x00, 0x00,
  0x02, 0xf8, 0xff, 0xff, 0x04, 0x00, 0x00, 0x00, 0x0b, 0x00, 0x00, 0x00,
  0x64, 0x65, 0x6e, 0x73, 0x65, 0x5f, 0x69, 0x6e, 0x70, 0x75, 0x74, 0x00,
  0x02, 0x00, 0x00, 0x00, 0x34, 0x00, 0x00, 0x00, 0x04, 0x00, 0x00, 0x00,
  0xdc, 0xff, 0xff, 0xff, 0x18, 0x00, 0x00, 0x00, 0x04, 0x00, 0x00, 0x00,
  0x13, 0x00, 0x00, 0x00, 0x43, 0x4f, 0x4e, 0x56, 0x45, 0x52, 0x53, 0x49,
  0x4f, 0x4e, 0x5f, 0x4d, 0x45, 0x54, 0x41, 0x44, 0x41, 0x54, 0x41, 0x00,
  0x08, 0x00, 0x0c, 0x00, 0x08, 0x00, 0x04, 0x00, 0x08, 0x00, 0x00, 0x00,
  0x17, 0x00, 0x00, 0x00, 0x04, 0x00, 0x00, 0x00, 0x13, 0x00, 0x00, 0x00,
  0x6d, 0x69, 0x6e, 0x5f, 0x72, 0x75, 0x6e, 0x74, 0x69, 0x6d, 0x65, 0x5f,
  0x76, 0x65, 0x72, 0x73, 0x69, 0x6f, 0x6e, 0x00, 0x19, 0x00, 0x00, 0x00,
  0xc4, 0x07, 0x00, 0x00, 0xbc, 0x07, 0x00, 0x00, 0x84, 0x07, 0x00, 0x00,
  0x44, 0x07, 0x00, 0x00, 0x0c, 0x07, 0x00, 0x00, 0xd4, 0x06, 0x00, 0x00,
  0xc0, 0x06, 0x00, 0x00, 0xa0, 0x06, 0x00, 0x00, 0xf0, 0x05, 0x00, 0x00,
  0x50, 0x04, 0x00, 0x00, 0xb0, 0x02, 0x00, 0x00, 0x10, 0x01, 0x00, 0x00,
  0xd8, 0x00, 0x00, 0x00, 0xd0, 0x00, 0x00, 0x00, 0xc8, 0x00, 0x00, 0x00,
  0xc0, 0x00, 0x00, 0x00, 0xb8, 0x00, 0x00, 0x00, 0xb0, 0x00, 0x00, 0x00,
  0xa8, 0x00, 0x00, 0x00, 0xa0, 0x00, 0x00, 0x00, 0x98, 0x00, 0x00, 0x00,
  0x90, 0x00, 0x00, 0x00, 0x88, 0x00, 0x00, 0x00, 0x68, 0x00, 0x00, 0x00,
  0x04, 0x00, 0x00, 0x00, 0xde, 0xf8, 0xff, 0xff, 0x04, 0x00, 0x00, 0x00,
  0x54, 0x00, 0x00, 0x00, 0x0c, 0x00, 0x00, 0x00, 0x08, 0x00, 0x0e, 0x00,
  0x08, 0x00, 0x04, 0x00, 0x08, 0x00, 0x00, 0x00, 0x10, 0x00, 0x00, 0x00,
  0x24, 0x00, 0x00, 0x00, 0x00, 0x00, 0x06, 0x00, 0x08, 0x00, 0x04, 0x00,
  0x06, 0x00, 0x00, 0x00, 0x04, 0x00, 0x00, 0x00, 0x00, 0x00, 0x00, 0x00,
  0x00, 0x00, 0x0a, 0x00, 0x10, 0x00, 0x0c, 0x00, 0x08, 0x00, 0x04, 0x00,
  0x0a, 0x00, 0x00, 0x00, 0x01, 0x00, 0x00, 0x00, 0x02, 0x00, 0x00, 0x00,
  0x04, 0x00, 0x00, 0x00, 0x06, 0x00, 0x00, 0x00, 0x32, 0x2e, 0x31, 0x31,
  0x2e, 0x30, 0x00, 0x00, 0x3e, 0xf9, 0xff, 0xff, 0x04, 0x00, 0x00, 0x00,
  0x10, 0x00, 0x00, 0x00, 0x31, 0x2e, 0x31, 0x34, 0x2e, 0x30, 0x00, 0x00,
  0x00, 0x00, 0x00, 0x00, 0x00, 0x00, 0x00, 0x00, 0xd8, 0xee, 0xff, 0xff,
  0xdc, 0xee, 0xff, 0xff, 0xe0, 0xee, 0xff, 0xff, 0xe4, 0xee, 0xff, 0xff,
  0xe8, 0xee, 0xff, 0xff, 0xec, 0xee, 0xff, 0xff, 0xf0, 0xee, 0xff, 0xff,
  0xf4, 0xee, 0xff, 0xff, 0xf8, 0xee, 0xff, 0xff, 0xfc, 0xee, 0xff, 0xff,
  0x82, 0xf9, 0xff, 0xff, 0x04, 0x00, 0x00, 0x00, 0x28, 0x00, 0x00, 0x00,
  0xdb, 0x9f, 0x61, 0x3f, 0x42, 0x72, 0x0d, 0xbe, 0x6d, 0x53, 0xec, 0xbe,
  0xf2, 0x9d, 0x63, 0xbf, 0x93, 0x37, 0x41, 0xbf, 0x83, 0x45, 0x81, 0xbf,
  0x47, 0x09, 0xc2, 0xbe, 0x7c, 0x8d, 0x92, 0x3e, 0x82, 0xa6, 0x48, 0xbe,
  0xa2, 0xef, 0x83, 0xbe, 0xb6, 0xf9, 0xff, 0xff, 0x04, 0x00, 0x00, 0x00,
  0x90, 0x01, 0x00, 0x00, 0xdb, 0xe9, 0xad, 0xbd, 0x34, 0x12, 0x04, 0xbf,
  0x0b, 0xc5, 0x1e, 0x3f, 0x8a, 0xde, 0x0b, 0x3f, 0xf6, 0x5a, 0x60, 0x3d,
  0x8b, 0x5a, 0x2b, 0x3f, 0xa8, 0x75, 0x1b, 0xbf, 0x71, 0xca, 0xe0, 0x3e,
  0x9d, 0x5b, 0x4a, 0x3e, 0x57, 0x6a, 0xc1, 0xbe, 0xe0, 0xa6, 0x61, 0xbc,
  0x76, 0x80, 0xf4, 0xbe, 0xc1, 0x6c, 0x95, 0x3e, 0x9c, 0x90, 0x9c, 0xbd,
  0xaa, 0x65, 0x4e, 0xbd, 0xbf, 0xf7, 0x94, 0x3e, 0x93, 0x29, 0x64, 0x3e,
  0x92, 0xb9, 0xc0, 0x3e, 0xa9, 0x7e, 0xdf, 0xbe, 0xd2, 0x25, 0x8e, 0xbe,
  0x82, 0x39, 0xad, 0x3d, 0x87, 0x99, 0x0a, 0x3e, 0x91, 0xdf, 0xe3, 0x3e,
  0x88, 0x81, 0x19, 0x3e, 0x80, 0xca, 0xfd, 0x3e, 0xea, 0xa3, 0x67, 0xbd,
  0xad, 0x47, 0x05, 0xbf, 0xfa, 0x14, 0x35, 0xbe, 0xee, 0x97, 0x9d, 0x3e,
  0x3e, 0xa8, 0x20, 0x3e, 0xbf, 0x92, 0x4c, 0x3d, 0x78, 0xe3, 0x1c, 0xbf,
  0xf4, 0x1f, 0x71, 0x3d, 0x7a, 0x0b, 0x59, 0xbd, 0xd6, 0xbc, 0xc1, 0xbe,
  0xd5, 0x44, 0x68, 0x3c, 0x9a, 0x5a, 0xfa, 0xbe, 0x90, 0xd0, 0x9f, 0x3e,
  0xab, 0x1f, 0xfb, 0x3d, 0xc7, 0xbd, 0xdd, 0xbe, 0x00, 0xb8, 0x5f, 0x3e,
  0x3a, 0xf8, 0xd9, 0xbe, 0xbf, 0xf3, 0xcd, 0x3e, 0x5a, 0x1a, 0xa8, 0xbe,
  0xff, 0x89, 0x10, 0xbf, 0xe8, 0xe1, 0xd6, 0x3e, 0x08, 0xfd, 0x0a, 0xbf,
  0xd7, 0x4e, 0x9f, 0xbe, 0xda, 0x0c, 0x20, 0xbc, 0xca, 0x80, 0xe3, 0xbe,
  0xdb, 0x32, 0xca, 0x3e, 0xb0, 0x86, 0xf0, 0x3d, 0x84, 0x50, 0x44, 0xbf,
  0x2a, 0xfe, 0x2c, 0xbf, 0x64, 0xf4, 0xe8, 0x3b, 0xfb, 0xbf, 0x40, 0xbf,
  0xaf, 0xcf, 0xa9, 0x3e, 0x60, 0xa7, 0x72, 0x3e, 0xd1, 0x14, 0xf6, 0xbe,
  0x3d, 0x7e, 0xa2, 0xbe, 0xe3, 0x25, 0xc7, 0xbe, 0xdc, 0x6a, 0x28, 0xbc,
  0x22, 0xbe, 0x49, 0xbe, 0xbe, 0x21, 0x1b, 0x3e, 0x80, 0x0c, 0xb4, 0xbe,
  0x76, 0x19, 0x00, 0x3f, 0x55, 0xa8, 0xce, 0xbe, 0xb5, 0xcc, 0x0f, 0xbf,
  0x7b, 0x12, 0xed, 0x3d, 0xf6, 0x05, 0xa9, 0x3e, 0xea, 0x54, 0xff, 0xbe,
  0x38, 0x15, 0xc5, 0x3e, 0xae, 0x61, 0xb0, 0xbe, 0xe8, 0xe7, 0x06, 0xbf,
  0xaf, 0x85, 0xbd, 0x3d, 0xc1, 0xaf, 0x98, 0xbe, 0x83, 0x85, 0xcf, 0xbd,
  0x37, 0x9f, 0x02, 0x3e, 0xcc, 0xe5, 0xe6, 0x3e, 0x61, 0x46, 0x12, 0x3e,
  0xf1, 0xf3, 0x04, 0xbf, 0x81, 0x73, 0xf1, 0x3e, 0x0f, 0x46, 0xa9, 0x3d,
  0x0a, 0x8e, 0xaf, 0xbe, 0x63, 0xae, 0xb3, 0xbe, 0x4d, 0x6e, 0xb5, 0x3e,
  0x36, 0x94, 0x90, 0xbc, 0xcf, 0xd8, 0x30, 0xbe, 0xe2, 0xd9, 0xc4, 0xbb,
  0x42, 0x66, 0xff, 0x3e, 0x01, 0xeb, 0xae, 0x3e, 0x26, 0x39, 0xf3, 0x3e,
  0x43, 0xf1, 0x19, 0xbf, 0x6c, 0xc4, 0x26, 0xbe, 0x5a, 0xba, 0x97, 0xbe,
  0x45, 0x52, 0xef, 0xbe, 0xa0, 0x68, 0x80, 0x3e, 0xb4, 0xb5, 0xba, 0x3d,
  0xd6, 0x8d, 0x35, 0xbe, 0x70, 0xba, 0x26, 0x3e, 0x52, 0xfb, 0xff, 0xff,
  0x04, 0x00, 0x00, 0x00, 0x90, 0x01, 0x00, 0x00, 0xeb, 0xf4, 0x19, 0xbf,
  0x88, 0xc0, 0xfb, 0xbe, 0xae, 0xe2, 0x8c, 0x3e, 0x81, 0x88, 0x12, 0xbf,
  0xa4, 0x37, 0x61, 0xbe, 0x74, 0xe4, 0xb7, 0x3e, 0xd7, 0x7b, 0x91, 0x3d,
  0xb1, 0x41, 0x6d, 0xbe, 0xc1, 0x02, 0x94, 0x3d, 0x08, 0xb1, 0xa0, 0xbe,
  0xb2, 0x9c, 0x7e, 0x3d, 0xa7, 0xb7, 0xfe, 0xbe, 0xcb, 0xb7, 0x10, 0xbf,
  0xf0, 0x97, 0x3c, 0xbe, 0x34, 0xf2, 0xa4, 0xbe, 0x4e, 0x85, 0x4c, 0xbe,
  0xa5, 0x07, 0xf8, 0xbe, 0xa1, 0xdf, 0x14, 0x3e, 0x21, 0x0d, 0xd5, 0xbd,
  0xe8, 0x4c, 0xfc, 0x3e, 0x00, 0x0a, 0x13, 0x3f, 0xf1, 0xe1, 0xd9, 0x3e,
  0xe8, 0x11, 0x18, 0xbe, 0x12, 0x60, 0x69, 0x3e, 0x6e, 0x06, 0x10, 0xbd,
  0xfd, 0xf1, 0x05, 0x3f, 0xce, 0xc1, 0x0c, 0x3e, 0xcd, 0xec, 0xac, 0xbe,
  0x8e, 0xe7, 0x15, 0xbf, 0x47, 0x33, 0xfa, 0xbc, 0xdf, 0x78, 0x54, 0x3e,
  0xfd, 0x7c, 0x1e, 0x3e, 0x14, 0x1c, 0xaf, 0x3d, 0xf1, 0x2c, 0x00, 0x3f,
  0x61, 0x0f, 0x01, 0x3d, 0x46, 0x0a, 0xff, 0x3e, 0x9a, 0x54, 0x0e, 0x3f,
  0x8a, 0x30, 0xd6, 0xbe, 0x9d, 0x76, 0xbe, 0xbd, 0xc6, 0x39, 0xb0, 0x3e,
  0x50, 0x6d, 0x90, 0xbe, 0x58, 0x96, 0xb8, 0x3e, 0xec, 0x80, 0xf0, 0xbe,
  0x08, 0x26, 0x09, 0x3e, 0x18, 0xc5, 0xec, 0x3e, 0xd2, 0x51, 0xae, 0xbd,
  0xbd, 0xce, 0x02, 0x3f, 0xab, 0x6b, 0xd3, 0xbe, 0xf9, 0x24, 0x35, 0x3a,
  0x7d, 0xdb, 0x19, 0x3f, 0xb1, 0x0f, 0xf5, 0x3e, 0x94, 0x88, 0x6c, 0xbe,
  0x51, 0x39, 0x16, 0x3f, 0x59, 0xee, 0x9c, 0x3e, 0x66, 0x04, 0x19, 0x3f,
  0x30, 0x0f, 0x2d, 0x3e, 0xe2, 0x33, 0xe5, 0x3e, 0xce, 0x38, 0x1f, 0xbb,
  0xa6, 0xdd, 0xf6, 0x3e, 0xab, 0x5a, 0xd0, 0x3e, 0xc1, 0x3e, 0x88, 0xbe,
  0x09, 0x16, 0xe0, 0xbe, 0x6d, 0x4f, 0xd5, 0xbe, 0xc9, 0xb0, 0x72, 0xbe,
  0xd0, 0x34, 0xb0, 0xbe, 0x73, 0xb5, 0x5c, 0xbd, 0x57, 0x5a, 0xa3, 0x3d,
  0xc9, 0xb9, 0x7f, 0x3b, 0xa5, 0xbb, 0x70, 0xbd, 0x4a, 0x58, 0xca, 0xbd,
  0x30, 0xea, 0xda, 0x3d, 0xa0, 0x3a, 0x01, 0xbf, 0x6c, 0xed, 0xb9, 0xbe,
  0x48, 0xf8, 0x31, 0x3e, 0x66, 0x6e, 0xd4, 0x3e, 0xbb, 0xc3, 0xbf, 0xbd,
  0x1a, 0x8e, 0x76, 0xbe, 0x71, 0x7c, 0x91, 0x3e, 0x14, 0x3e, 0x7e, 0x3e,
  0xd5, 0x15, 0x08, 0x3f, 0xef, 0x7e, 0x14, 0x3e, 0xd9, 0xcd, 0x7d, 0xbe,
  0x19, 0x95, 0x01, 0x3f, 0x4e, 0x14, 0x73, 0x3d, 0xc1, 0x44, 0x11, 0x3e,
  0x33, 0xc7, 0x65, 0x3e, 0xf4, 0xf0, 0x18, 0xbe, 0x60, 0x4b, 0xe1, 0x3d,
  0x7e, 0xf0, 0x6d, 0xbe, 0xcb, 0xb4, 0x13, 0xbe, 0x8d, 0xa8, 0x6a, 0x3e,
  0x1a, 0x67, 0xab, 0x3e, 0x28, 0x6d, 0xab, 0x3e, 0x81, 0xd6, 0x5d, 0xbe,
  0x71, 0x0a, 0x02, 0xbf, 0x18, 0xd8, 0x4c, 0xbb, 0xdf, 0x5e, 0x1c, 0x3e,
  0x16, 0x80, 0xa5, 0x3e, 0x7d, 0x23, 0xab, 0xbd, 0x0b, 0x88, 0xb2, 0x3d,
  0xee, 0xfc, 0xff, 0xff, 0x04, 0x00, 0x00, 0x00, 0x90, 0x01, 0x00, 0x00,
  0x9c, 0x8c, 0xf7, 0xbd, 0xcb, 0x76, 0x17, 0x3f, 0xe0, 0x5c, 0x87, 0x3e,
  0xbf, 0x5a, 0xdc, 0x3d, 0xc2, 0x20, 0x9d, 0xbe, 0x9d, 0x4f, 0xdd, 0x3e,
  0xcc, 0xbc, 0x8b, 0x3b, 0xbe, 0xd1, 0x45, 0xbd, 0x1f, 0xb2, 0x14, 0xbd,
  0xab, 0x8d, 0xa2, 0x3e, 0xac, 0xcd, 0x78, 0xbd, 0xb9, 0x0d, 0x79, 0xbe,
  0x0f, 0x65, 0xb0, 0x3e, 0x0c, 0xe1, 0x8c, 0xbc, 0xeb, 0x05, 0x64, 0xbd,
  0x31, 0xee, 0xd2, 0x3e, 0x92, 0x19, 0x18, 0xbe, 0x61, 0x79, 0x24, 0xbd,
  0xc9, 0x81, 0x04, 0xbe, 0x46, 0x39, 0x4c, 0x3e, 0xdd, 0x20, 0xea, 0xbe,
  0xd8, 0xbd, 0xb9, 0x3e, 0x86, 0xc3, 0x0f, 0x3e, 0x78, 0xbf, 0x16, 0x3f,
  0x46, 0x34, 0xc6, 0xbe, 0x5d, 0x41, 0x0f, 0x3f, 0x93, 0xe1, 0x4a, 0xbe,
  0x58, 0xdf, 0x6e, 0x3e, 0x87, 0x95, 0x87, 0xbd, 0x57, 0xb0, 0xff, 0x3e,
  0x29, 0x73, 0xf0, 0xbe, 0x13, 0x03, 0xe8, 0x3e, 0x29, 0x24, 0x29, 0x3e,
  0x30, 0x27, 0xba, 0x3e, 0xfc, 0x26, 0x16, 0xbf, 0xac, 0x7e, 0x10, 0x3f,
  0x29, 0x94, 0xbd, 0xbb, 0xaf, 0x9c, 0xc4, 0x3e, 0x18, 0x62, 0xec, 0x3d,
  0x00, 0xd7, 0xcc, 0xbe, 0xbe, 0xf7, 0x05, 0xbe, 0x39, 0xc7, 0x1d, 0x3e,
  0xe9, 0x2d, 0x06, 0x3f, 0xdd, 0x9d, 0xe4, 0x3e, 0x3b, 0x14, 0x32, 0xbe,
  0x2b, 0x1f, 0x88, 0x3e, 0xf3, 0x99, 0x29, 0x3d, 0x3b, 0xce, 0xe2, 0x3e,
  0x46, 0xfe, 0x92, 0x3e, 0x6b, 0xcc, 0xc8, 0x3e, 0x96, 0x24, 0x60, 0xbe,
  0xc5, 0xc6, 0x5a, 0xbe, 0xc8, 0xa5, 0x87, 0x3e, 0x29, 0xa2, 0x9f, 0xbe,
  0x2e, 0x10, 0x5a, 0x3d, 0x2c, 0x6b, 0xf6, 0x3d, 0x11, 0xa7, 0xa7, 0xbe,
  0xd9, 0x6e, 0x80, 0xbd, 0x0b, 0x3b, 0xd5, 0x3e, 0x26, 0x93, 0x9b, 0xbe,
  0xa2, 0x4a, 0x94, 0xbe, 0x11, 0xee, 0xa4, 0x3e, 0x21, 0xf5, 0xac, 0xbe,
  0x35, 0x4c, 0x9a, 0xbe, 0x0a, 0x33, 0xb8, 0xbc, 0x92, 0x0b, 0xb3, 0x3e,
  0xd6, 0xaf, 0xc3, 0xbe, 0x98, 0xcb, 0xcd, 0xbe, 0xfa, 0x01, 0x4e, 0xbd,
  0x3f, 0xe0, 0x9c, 0x3c, 0x35, 0x02, 0x08, 0xbf, 0x1a, 0x8c, 0xb3, 0x3d,
  0xca, 0xac, 0x9a, 0x3e, 0xc8, 0x50, 0x87, 0xbc, 0x71, 0x46, 0xc5, 0x3e,
  0x5c, 0xb0, 0x0d, 0x3f, 0xf8, 0x6f, 0x47, 0x3e, 0x43, 0x80, 0xf9, 0x3d,
  0x50, 0xb3, 0xc9, 0x3e, 0xff, 0x86, 0xfb, 0xbe, 0x29, 0xeb, 0x2a, 0xbe,
  0x29, 0x49, 0xf3, 0xbe, 0x87, 0x13, 0x3e, 0x3e, 0x16, 0xaf, 0x9a, 0x3e,
  0x1e, 0xa1, 0x75, 0xbc, 0xc8, 0x58, 0x14, 0xbd, 0xe5, 0xdc, 0x9e, 0x3c,
  0x17, 0xe5, 0xe0, 0x3e, 0x05, 0x15, 0x0b, 0xbf, 0xfe, 0x3c, 0x45, 0x3d,
  0xfe, 0xba, 0x12, 0x3f, 0x52, 0xa4, 0xd5, 0x3e, 0x47, 0xfe, 0xf1, 0x3e,
  0x8a, 0x7c, 0x59, 0x3d, 0xd3, 0x1c, 0xa8, 0xbe, 0xb2, 0x23, 0x66, 0xbe,
  0x7f, 0x6f, 0x2f, 0xbd, 0x23, 0xe5, 0xc5, 0xbe, 0xd0, 0x86, 0x42, 0x3e,
  0xa6, 0x4c, 0x04, 0x3f, 0x8a, 0xfe, 0xff, 0xff, 0x04, 0x00, 0x00, 0x00,
  0xa0, 0x00, 0x00, 0x00, 0x30, 0x9f, 0xed, 0xbc, 0x77, 0xb3, 0xc0, 0x3e,
  0xa0, 0xfa, 0x00, 0x3f, 0x00, 0x9f, 0xb3, 0xbe, 0x30, 0x72, 0x9c, 0x3e,
  0xab, 0x56, 0x42, 0x3e, 0xb1, 0x45, 0xb5, 0x3e, 0x7e, 0xc8, 0x1e, 0x3e,
  0x80, 0x74, 0x85, 0xbe, 0xc3, 0xdb, 0x1a, 0x3f, 0xec, 0xe9, 0x14, 0xbf,
  0x88, 0x97, 0x14, 0xbf, 0x4e, 0x92, 0x1f, 0x3f, 0x2b, 0xcb, 0x95, 0x3b,
  0x80, 0x5a, 0xd0, 0xbe, 0x52, 0xb9, 0xa6, 0xbe, 0xb6, 0xdc, 0x97, 0x3e,
  0x3e, 0x0e, 0x05, 0x3f, 0x49, 0xeb, 0xf1, 0xbe, 0x94, 0x1f, 0x3d, 0x3f,
  0x33, 0xaf, 0x00, 0x3f, 0x0e, 0x6b, 0xa6, 0xbe, 0xcd, 0x92, 0x42, 0xbe,
  0x97, 0xe6, 0x88, 0x3e, 0xc2, 0x70, 0x8a, 0x3d, 0x0f, 0xaf, 0x48, 0xbf,
  0x99, 0x4f, 0xce, 0xbe, 0x59, 0xd9, 0xc6, 0x3e, 0x8c, 0x73, 0xe5, 0xbe,
  0x19, 0x64, 0x2f, 0xbe, 0x4f, 0x11, 0xd8, 0x3e, 0x9a, 0x67, 0x14, 0xbe,
  0x5c, 0x6a, 0xde, 0x3e, 0x36, 0x4c, 0xe9, 0xbe, 0xbf, 0xff, 0x01, 0xbf,
  0xb6, 0x7f, 0x0f, 0x3f, 0x76, 0xf3, 0x01, 0xbf, 0x11, 0xf9, 0x0d, 0xbf,
  0x44, 0x95, 0x9b, 0x3e, 0x0c, 0x18, 0xf3, 0xbe, 0x36, 0xff, 0xff, 0xff,
  0x04, 0x00, 0x00, 0x00, 0x10, 0x00, 0x00, 0x00, 0xa7, 0x10, 0x9c, 0xbe,
  0x04, 0x25, 0x28, 0xbf, 0x40, 0x87, 0xa0, 0x3e, 0x76, 0x4d, 0x1f, 0xbf,
  0x52, 0xff, 0xff, 0xff, 0x04, 0x00, 0x00, 0x00, 0x04, 0x00, 0x00, 0x00,
  0x2e, 0xb8, 0xd2, 0x3e, 0x62, 0xff, 0xff, 0xff, 0x04, 0x00, 0x00, 0x00,
  0x28, 0x00, 0x00, 0x00, 0x7a, 0x64, 0x15, 0xbe, 0xbd, 0x71, 0x1d, 0xbd,
  0xf7, 0x41, 0x0c, 0xbd, 0xfa, 0xb9, 0x02, 0xbe, 0x98, 0xa3, 0xc3, 0xbd,
  0x4b, 0x3c, 0xaf, 0x3d, 0x1b, 0x6c, 0x07, 0x3d, 0x57, 0x7a, 0x95, 0x3d,
  0x5f, 0x82, 0x8d, 0xbd, 0x6c, 0xe8, 0x92, 0x3d, 0x96, 0xff, 0xff, 0xff,
  0x04, 0x00, 0x00, 0x00, 0x28, 0x00, 0x00, 0x00, 0xaa, 0x25, 0x7a, 0x3d,
  0x41, 0x70, 0x7a, 0x3d, 0x77, 0x05, 0x1a, 0xbe, 0xf5, 0xcf, 0x0e, 0xbe,
  0x93, 0x47, 0x40, 0x3d, 0x89, 0x61, 0xd6, 0xbc, 0x39, 0xae, 0xcb, 0x3c,
  0xb9, 0x62, 0x38, 0xbd, 0x3e, 0x79, 0xfc, 0xbc, 0x5b, 0x2b, 0x0f, 0x3e,
  0xca, 0xff, 0xff, 0xff, 0x04, 0x00, 0x00, 0x00, 0x28, 0x00, 0x00, 0x00,
  0x30, 0xd8, 0xf0, 0xbd, 0x8a, 0x6e, 0x67, 0xbd, 0xca, 0x00, 0x88, 0x3d,
  0x79, 0x98, 0xb0, 0xbc, 0x31, 0x26, 0x98, 0xbd, 0x2e, 0x61, 0x1c, 0xbd,
  0x7a, 0x2d, 0x52, 0x3c, 0x5c, 0xf0, 0x3a, 0x3d, 0x81, 0xe7, 0x64, 0x3c,
  0xce, 0x4f, 0x55, 0xbd, 0x00, 0x00, 0x06, 0x00, 0x08, 0x00, 0x04, 0x00,
  0x06, 0x00, 0x00, 0x00, 0x04, 0x00, 0x00, 0x00, 0x28, 0x00, 0x00, 0x00,
  0x7c, 0xf4, 0xd1, 0xbe, 0x9e, 0x4d, 0x73, 0x3e, 0x48, 0xba, 0x93, 0xbd,
  0x24, 0x1a, 0x96, 0x3e, 0x89, 0xfe, 0x27, 0x3f, 0xc8, 0x4c, 0x18, 0x3f,
  0x0c, 0x56, 0x39, 0x3e, 0x3b, 0x7c, 0xc6, 0xbe, 0x4f, 0x31, 0xde, 0x3e,
  0xc1, 0x5a, 0x08, 0xbf, 0xb8, 0xf5, 0xff, 0xff, 0xbc, 0xf5, 0xff, 0xff,
  0x0f, 0x00, 0x00, 0x00, 0x4d, 0x4c, 0x49, 0x52, 0x20, 0x43, 0x6f, 0x6e,
  0x76, 0x65, 0x72, 0x74, 0x65, 0x64, 0x2e, 0x00, 0x01, 0x00, 0x00, 0x00,
  0x14, 0x00, 0x00, 0x00, 0x00, 0x00, 0x0e, 0x00, 0x18, 0x00, 0x14, 0x00,
  0x10, 0x00, 0x0c, 0x00, 0x08, 0x00, 0x04, 0x00, 0x0e, 0x00, 0x00, 0x00,
  0x14, 0x00, 0x00, 0x00, 0x1c, 0x00, 0x00, 0x00, 0x00, 0x02, 0x00, 0x00,
  0x04, 0x02, 0x00, 0x00, 0x08, 0x02, 0x00, 0x00, 0x04, 0x00, 0x00, 0x00,
  0x6d, 0x61, 0x69, 0x6e, 0x00, 0x00, 0x00, 0x00, 0x0a, 0x00, 0x00, 0x00,
  0xb4, 0x01, 0x00, 0x00, 0x70, 0x01, 0x00, 0x00, 0x4c, 0x01, 0x00, 0x00,
  0x0c, 0x01, 0x00, 0x00, 0xe8, 0x00, 0x00, 0x00, 0xb4, 0x00, 0x00, 0x00,
  0x90, 0x00, 0x00, 0x00, 0x5c, 0x00, 0x00, 0x00, 0x38, 0x00, 0x00, 0x00,
  0x04, 0x00, 0x00, 0x00, 0x82, 0xfe, 0xff, 0xff, 0x10, 0x00, 0x00, 0x00,
  0x00, 0x00, 0x00, 0x08, 0x0c, 0x00, 0x00, 0x00, 0x10, 0x00, 0x00, 0x00,
  0x50, 0xf6, 0xff, 0xff, 0x01, 0x00, 0x00, 0x00, 0x15, 0x00, 0x00, 0x00,
  0x03, 0x00, 0x00, 0x00, 0x14, 0x00, 0x00, 0x00, 0x0b, 0x00, 0x00, 0x00,
  0x05, 0x00, 0x00, 0x00, 0x0e, 0xff, 0xff, 0xff, 0x0c, 0x00, 0x00, 0x00,
  0x10, 0x00, 0x00, 0x00, 0x01, 0x00, 0x00, 0x00, 0x01, 0x00, 0x00, 0x00,
  0x14, 0x00, 0x00, 0x00, 0x01, 0x00, 0x00, 0x00, 0x13, 0x00, 0x00, 0x00,
  0xd2, 0xfe, 0xff, 0xff, 0x10, 0x00, 0x00, 0x00, 0x00, 0x00, 0x00, 0x08,
  0x0c, 0x00, 0x00, 0x00, 0x10, 0x00, 0x00, 0x00, 0xa0, 0xf6, 0xff, 0xff,
  0x01, 0x00, 0x00, 0x00, 0x13, 0x00, 0x00, 0x00, 0x03, 0x00, 0x00, 0x00,
  0x12, 0x00, 0x00, 0x00, 0x0a, 0x00, 0x00, 0x00, 0x04, 0x00, 0x00, 0x00,
  0x5e, 0xff, 0xff, 0xff, 0x0c, 0x00, 0x00, 0x00, 0x10, 0x00, 0x00, 0x00,
  0x01, 0x00, 0x00, 0x00, 0x01, 0x00, 0x00, 0x00, 0x12, 0x00, 0x00, 0x00,
  0x01, 0x00, 0x00, 0x00, 0x11, 0x00, 0x00, 0x00, 0x22, 0xff, 0xff, 0xff,
  0x10, 0x00, 0x00, 0x00, 0x00, 0x00, 0x00, 0x08, 0x0c, 0x00, 0x00, 0x00,
  0x10, 0x00, 0x00, 0x00, 0xf0, 0xf6, 0xff, 0xff, 0x01, 0x00, 0x00, 0x00,
  0x11, 0x00, 0x00, 0x00, 0x03, 0x00, 0x00, 0x00, 0x10, 0x00, 0x00, 0x00,
  0x09, 0x00, 0x00, 0x00, 0x03, 0x00, 0x00, 0x00, 0xae, 0xff, 0xff, 0xff,
  0x0c, 0x00, 0x00, 0x00, 0x10, 0x00, 0x00, 0x00, 0x01, 0x00, 0x00, 0x00,
  0x01, 0x00, 0x00, 0x00, 0x10, 0x00, 0x00, 0x00, 0x01, 0x00, 0x00, 0x00,
  0x0f, 0x00, 0x00, 0x00, 0x72, 0xff, 0xff, 0xff, 0x10, 0x00, 0x00, 0x00,
  0x00, 0x00, 0x00, 0x08, 0x0c, 0x00, 0x00, 0x00, 0x10, 0x00, 0x00, 0x00,
  0x40, 0xf7, 0xff, 0xff, 0x01, 0x00, 0x00, 0x00, 0x0f, 0x00, 0x00, 0x00,
  0x03, 0x00, 0x00, 0x00, 0x0e, 0x00, 0x00, 0x00, 0x08, 0x00, 0x00, 0x00,
  0x02, 0x00, 0x00, 0x00, 0x00, 0x00, 0x0a, 0x00, 0x10, 0x00, 0x0c, 0x00,
  0x08, 0x00, 0x04, 0x00, 0x0a, 0x00, 0x00, 0x00, 0x0c, 0x00, 0x00, 0x00,
  0x10, 0x00, 0x00, 0x00, 0x01, 0x00, 0x00, 0x00, 0x01, 0x00, 0x00, 0x00,
  0x0e, 0x00, 0x00, 0x00, 0x01, 0x00, 0x00, 0x00, 0x0d, 0x00, 0x00, 0x00,
  0xce, 0xff, 0xff, 0xff, 0x10, 0x00, 0x00, 0x00, 0x00, 0x00, 0x00, 0x08,
  0x0c, 0x00, 0x00, 0x00, 0x10, 0x00, 0x00, 0x00, 0x9c, 0xf7, 0xff, 0xff,
  0x01, 0x00, 0x00, 0x00, 0x0d, 0x00, 0x00, 0x00, 0x03, 0x00, 0x00, 0x00,
  0x0c, 0x00, 0x00, 0x00, 0x07, 0x00, 0x00, 0x00, 0x01, 0x00, 0x00, 0x00,
  0x00, 0x00, 0x0e, 0x00, 0x14, 0x00, 0x00, 0x00, 0x10, 0x00, 0x0c, 0x00,
  0x0b, 0x00, 0x04, 0x00, 0x0e, 0x00, 0x00, 0x00, 0x10, 0x00, 0x00, 0x00,
  0x00, 0x00, 0x00, 0x08, 0x0c, 0x00, 0x00, 0x00, 0x10, 0x00, 0x00, 0x00,
  0xdc, 0xf7, 0xff, 0xff, 0x01, 0x00, 0x00, 0x00, 0x0c, 0x00, 0x00, 0x00,
  0x03, 0x00, 0x00, 0x00, 0x00, 0x00, 0x00, 0x00, 0x06, 0x00, 0x00, 0x00,
  0xff, 0xff, 0xff, 0xff, 0x01, 0x00, 0x00, 0x00, 0x15, 0x00, 0x00, 0x00,
  0x01, 0x00, 0x00, 0x00, 0x00, 0x00, 0x00, 0x00, 0x16, 0x00, 0x00, 0x00,
  0xcc, 0x07, 0x00, 0x00, 0x50, 0x07, 0x00, 0x00, 0xe0, 0x06, 0x00, 0x00,
  0x88, 0x06, 0x00, 0x00, 0x30, 0x06, 0x00, 0x00, 0xd8, 0x05, 0x00, 0x00,
  0x90, 0x05, 0x00, 0x00, 0x44, 0x05, 0x00, 0x00, 0xf8, 0x04, 0x00, 0x00,
  0xac, 0x04, 0x00, 0x00, 0x60, 0x04, 0x00, 0x00, 0x14, 0x04, 0x00, 0x00,
  0xb8, 0x03, 0x00, 0x00, 0x28, 0x03, 0x00, 0x00, 0xd0, 0x02, 0x00, 0x00,
  0x58, 0x02, 0x00, 0x00, 0x00, 0x02, 0x00, 0x00, 0x88, 0x01, 0x00, 0x00,
  0x30, 0x01, 0x00, 0x00, 0xb8, 0x00, 0x00, 0x00, 0x60, 0x00, 0x00, 0x00,
  0x04, 0x00, 0x00, 0x00, 0xa2, 0xf8, 0xff, 0xff, 0x00, 0x00, 0x00, 0x01,
  0x14, 0x00, 0x00, 0x00, 0x1c, 0x00, 0x00, 0x00, 0x1c, 0x00, 0x00, 0x00,
  0x16, 0x00, 0x00, 0x00, 0x34, 0x00, 0x00, 0x00, 0x02, 0x00, 0x00, 0x00,
  0xff, 0xff, 0xff, 0xff, 0x01, 0x00, 0x00, 0x00, 0x8c, 0xf8, 0xff, 0xff,
  0x19, 0x00, 0x00, 0x00, 0x53, 0x74, 0x61, 0x74, 0x65, 0x66, 0x75, 0x6c,
  0x50, 0x61, 0x72, 0x74, 0x69, 0x74, 0x69, 0x6f, 0x6e, 0x65, 0x64, 0x43,
  0x61, 0x6c, 0x6c, 0x3a, 0x30, 0x00, 0x00, 0x00, 0x02, 0x00, 0x00, 0x00,
  0x01, 0x00, 0x00, 0x00, 0x01, 0x00, 0x00, 0x00, 0xfa, 0xf8, 0xff, 0xff,
  0x00, 0x00, 0x00, 0x01, 0x14, 0x00, 0x00, 0x00, 0x1c, 0x00, 0x00, 0x00,
  0x1c, 0x00, 0x00, 0x00, 0x15, 0x00, 0x00, 0x00, 0x30, 0x00, 0x00, 0x00,
  0x02, 0x00, 0x00, 0x00, 0xff, 0xff, 0xff, 0xff, 0x0a, 0x00, 0x00, 0x00,
  0xe4, 0xf8, 0xff, 0xff, 0x17, 0x00, 0x00, 0x00, 0x73, 0x65, 0x71, 0x75,
  0x65, 0x6e, 0x74, 0x69, 0x61, 0x6c, 0x2f, 0x64, 0x65, 0x6e, 0x73, 0x65,
  0x5f, 0x34, 0x2f, 0x54, 0x61, 0x6e, 0x68, 0x00, 0x02, 0x00, 0x00, 0x00,
  0x01, 0x00, 0x00, 0x00, 0x0a, 0x00, 0x00, 0x00, 0x4e, 0xf9, 0xff, 0xff,
  0x00, 0x00, 0x00, 0x01, 0x14, 0x00, 0x00, 0x00, 0x1c, 0x00, 0x00, 0x00,
  0x1c, 0x00, 0x00, 0x00, 0x14, 0x00, 0x00, 0x00, 0x50, 0x00, 0x00, 0x00,
  0x02, 0x00, 0x00, 0x00, 0xff, 0xff, 0xff, 0xff, 0x0a, 0x00, 0x00, 0x00,
  0x38, 0xf9, 0xff, 0xff, 0x34, 0x00, 0x00, 0x00, 0x73, 0x65, 0x71, 0x75,
  0x65, 0x6e, 0x74, 0x69, 0x61, 0x6c, 0x2f, 0x64, 0x65, 0x6e, 0x73, 0x65,
  0x5f, 0x34, 0x2f, 0x4d, 0x61, 0x74, 0x4d, 0x75, 0x6c, 0x3b, 0x73, 0x65,
  0x71, 0x75, 0x65, 0x6e, 0x74, 0x69, 0x61, 0x6c, 0x2f, 0x64, 0x65, 0x6e,
  0x73, 0x65, 0x5f, 0x34, 0x2f, 0x42, 0x69, 0x61, 0x73, 0x41, 0x64, 0x64,
  0x00, 0x00, 0x00, 0x00, 0x02, 0x00, 0x00, 0x00, 0x01, 0x00, 0x00, 0x00,
  0x0a, 0x00, 0x00, 0x00, 0xc2, 0xf9, 0xff, 0xff, 0x00, 0x00, 0x00, 0x01,
  0x14, 0x00, 0x00, 0x00, 0x1c, 0x00, 0x00, 0x00, 0x1c, 0x00, 0x00, 0x00,
  0x13, 0x00, 0x00, 0x00, 0x30, 0x00, 0x00, 0x00, 0x02, 0x00, 0x00, 0x00,
  0xff, 0xff, 0xff, 0xff, 0x0a, 0x00, 0x00, 0x00, 0xac, 0xf9, 0xff, 0xff,
  0x17, 0x00, 0x00, 0x00, 0x73, 0x65, 0x71, 0x75, 0x65, 0x6e, 0x74, 0x69,
  0x61, 0x6c, 0x2f, 0x64, 0x65, 0x6e, 0x73, 0x65, 0x5f, 0x33, 0x2f, 0x54,
  0x61, 0x6e, 0x68, 0x00, 0x02, 0x00, 0x00, 0x00, 0x01, 0x00, 0x00, 0x00,
  0x0a, 0x00, 0x00, 0x00, 0x16, 0xfa, 0xff, 0xff, 0x00, 0x00, 0x00, 0x01,
  0x14, 0x00, 0x00, 0x00, 0x1c, 0x00, 0x00, 0x00, 0x1c, 0x00, 0x00, 0x00,
  0x12, 0x00, 0x00, 0x00, 0x50, 0x00, 0x00, 0x00, 0x02, 0x00, 0x00, 0x00,
  0xff, 0xff, 0xff, 0xff, 0x0a, 0x00, 0x00, 0x00, 0x00, 0xfa, 0xff, 0xff,
  0x34, 0x00, 0x00, 0x00, 0x73, 0x65, 0x71, 0x75, 0x65, 0x6e, 0x74, 0x69,
  0x61, 0x6c, 0x2f, 0x64, 0x65, 0x6e, 0x73, 0x65, 0x5f, 0x33, 0x2f, 0x4d,
  0x61, 0x74, 0x4d, 0x75, 0x6c, 0x3b, 0x73, 0x65, 0x71, 0x75, 0x65, 0x6e,
  0x74, 0x69, 0x61, 0x6c, 0x2f, 0x64, 0x65, 0x6e, 0x73, 0x65, 0x5f, 0x33,
  0x2f, 0x42, 0x69, 0x61, 0x73, 0x41, 0x64, 0x64, 0x00, 0x00, 0x00, 0x00,
  0x02, 0x00, 0x00, 0x00, 0x01, 0x00, 0x00, 0x00, 0x0a, 0x00, 0x00, 0x00,
  0x8a, 0xfa, 0xff, 0xff, 0x00, 0x00, 0x00, 0x01, 0x14, 0x00, 0x00, 0x00,
  0x1c, 0x00, 0x00, 0x00, 0x1c, 0x00, 0x00, 0x00, 0x11, 0x00, 0x00, 0x00,
  0x30, 0x00, 0x00, 0x00, 0x02, 0x00, 0x00, 0x00, 0xff, 0xff, 0xff, 0xff,
  0x0a, 0x00, 0x00, 0x00, 0x74, 0xfa, 0xff, 0xff, 0x17, 0x00, 0x00, 0x00,
  0x73, 0x65, 0x71, 0x75, 0x65, 0x6e, 0x74, 0x69, 0x61, 0x6c, 0x2f, 0x64,
  0x65, 0x6e, 0x73, 0x65, 0x5f, 0x32, 0x2f, 0x54, 0x61, 0x6e, 0x68, 0x00,
  0x02, 0x00, 0x00, 0x00, 0x01, 0x00, 0x00, 0x00, 0x0a, 0x00, 0x00, 0x00,
  0xde, 0xfa, 0xff, 0xff, 0x00, 0x00, 0x00, 0x01, 0x14, 0x00, 0x00, 0x00,
  0x1c, 0x00, 0x00, 0x00, 0x1c, 0x00, 0x00, 0x00, 0x10, 0x00, 0x00, 0x00,
  0x50, 0x00, 0x00, 0x00, 0x02, 0x00, 0x00, 0x00, 0xff, 0xff, 0xff, 0xff,
  0x0a, 0x00, 0x00, 0x00, 0xc8, 0xfa, 0xff, 0xff, 0x34, 0x00, 0x00, 0x00,
  0x73, 0x65, 0x71, 0x75, 0x65, 0x6e, 0x74, 0x69, 0x61, 0x6c, 0x2f, 0x64,
  0x65, 0x6e, 0x73, 0x65, 0x5f, 0x32, 0x2f, 0x4d, 0x61, 0x74, 0x4d, 0x75,
  0x6c, 0x3b, 0x73, 0x65, 0x71, 0x75, 0x65, 0x6e, 0x74, 0x69, 0x61, 0x6c,
  0x2f, 0x64, 0x65, 0x6e, 0x73, 0x65, 0x5f, 0x32, 0x2f, 0x42, 0x69, 0x61,
  0x73, 0x41, 0x64, 0x64, 0x00, 0x00, 0x00, 0x00, 0x02, 0x00, 0x00, 0x00,
  0x01, 0x00, 0x00, 0x00, 0x0a, 0x00, 0x00, 0x00, 0x52, 0xfb, 0xff, 0xff,
  0x00, 0x00, 0x00, 0x01, 0x14, 0x00, 0x00, 0x00, 0x1c, 0x00, 0x00, 0x00,
  0x1c, 0x00, 0x00, 0x00, 0x0f, 0x00, 0x00, 0x00, 0x30, 0x00, 0x00, 0x00,
  0x02, 0x00, 0x00, 0x00, 0xff, 0xff, 0xff, 0xff, 0x0a, 0x00, 0x00, 0x00,
  0x3c, 0xfb, 0xff, 0xff, 0x17, 0x00, 0x00, 0x00, 0x73, 0x65, 0x71, 0x75,
  0x65, 0x6e, 0x74, 0x69, 0x61, 0x6c, 0x2f, 0x64, 0x65, 0x6e, 0x73, 0x65,
  0x5f, 0x31, 0x2f, 0x54, 0x61, 0x6e, 0x68, 0x00, 0x02, 0x00, 0x00, 0x00,
  0x01, 0x00, 0x00, 0x00, 0x0a, 0x00, 0x00, 0x00, 0xa6, 0xfb, 0xff, 0xff,
  0x00, 0x00, 0x00, 0x01, 0x14, 0x00, 0x00, 0x00, 0x1c, 0x00, 0x00, 0x00,
  0x1c, 0x00, 0x00, 0x00, 0x0e, 0x00, 0x00, 0x00, 0x68, 0x00, 0x00, 0x00,
  0x02, 0x00, 0x00, 0x00, 0xff, 0xff, 0xff, 0xff, 0x0a, 0x00, 0x00, 0x00,
  0x90, 0xfb, 0xff, 0xff, 0x4d, 0x00, 0x00, 0x00, 0x73, 0x65, 0x71, 0x75,
  0x65, 0x6e, 0x74, 0x69, 0x61, 0x6c, 0x2f, 0x64, 0x65, 0x6e, 0x73, 0x65,
  0x2f, 0x42, 0x69, 0x61, 0x73, 0x41, 0x64, 0x64, 0x3b, 0x73, 0x65, 0x71,
  0x75, 0x65, 0x6e, 0x74, 0x69, 0x61, 0x6c, 0x2f, 0x64, 0x65, 0x6e, 0x73,
  0x65, 0x5f, 0x31, 0x2f, 0x4d, 0x61, 0x74, 0x4d, 0x75, 0x6c, 0x3b, 0x73,
  0x65, 0x71, 0x75, 0x65, 0x6e, 0x74, 0x69, 0x61, 0x6c, 0x2f, 0x64, 0x65,
  0x6e, 0x73, 0x65, 0x5f, 0x31, 0x2f, 0x42, 0x69, 0x61, 0x73, 0x41, 0x64,
  0x64, 0x00, 0x00, 0x00, 0x02, 0x00, 0x00, 0x00, 0x01, 0x00, 0x00, 0x00,
  0x0a, 0x00, 0x00, 0x00, 0x32, 0xfc, 0xff, 0xff, 0x00, 0x00, 0x00, 0x01,
  0x14, 0x00, 0x00, 0x00, 0x1c, 0x00, 0x00, 0x00, 0x1c, 0x00, 0x00, 0x00,
  0x0d, 0x00, 0x00, 0x00, 0x34, 0x00, 0x00, 0x00, 0x02, 0x00, 0x00, 0x00,
  0xff, 0xff, 0xff, 0xff, 0x04, 0x00, 0x00, 0x00, 0x1c, 0xfc, 0xff, 0xff,
  0x18, 0x00, 0x00, 0x00, 0x73, 0x65, 0x71, 0x75, 0x65, 0x6e, 0x74, 0x69,
  0x61, 0x6c, 0x2f, 0x64, 0x65, 0x6e, 0x73, 0x65, 0x2f, 0x4d, 0x61, 0x74,
  0x4d, 0x75, 0x6c, 0x32, 0x00, 0x00, 0x00, 0x00, 0x02, 0x00, 0x00, 0x00,
  0x01, 0x00, 0x00, 0x00, 0x04, 0x00, 0x00, 0x00, 0x02, 0xfd, 0xff, 0xff,
  0x00, 0x00, 0x00, 0x01, 0x10, 0x00, 0x00, 0x00, 0x10, 0x00, 0x00, 0x00,
  0x0c, 0x00, 0x00, 0x00, 0x28, 0x00, 0x00, 0x00, 0x64, 0xfc, 0xff, 0xff,
  0x19, 0x00, 0x00, 0x00, 0x73, 0x65, 0x71, 0x75, 0x65, 0x6e, 0x74, 0x69,
  0x61, 0x6c, 0x2f, 0x64, 0x65, 0x6e, 0x73, 0x65, 0x5f, 0x35, 0x2f, 0x4d,
  0x61, 0x74, 0x4d, 0x75, 0x6c, 0x00, 0x00, 0x00, 0x02, 0x00, 0x00, 0x00,
  0x01, 0x00, 0x00, 0x00, 0x0a, 0x00, 0x00, 0x00, 0x4a, 0xfd, 0xff, 0xff,
  0x00, 0x00, 0x00, 0x01, 0x10, 0x00, 0x00, 0x00, 0x10, 0x00, 0x00, 0x00,
  0x0b, 0x00, 0x00, 0x00, 0x28, 0x00, 0x00, 0x00, 0xac, 0xfc, 0xff, 0xff,
  0x19, 0x00, 0x00, 0x00, 0x73, 0x65, 0x71, 0x75, 0x65, 0x6e, 0x74, 0x69,
  0x61, 0x6c, 0x2f, 0x64, 0x65, 0x6e, 0x73, 0x65, 0x5f, 0x34, 0x2f, 0x4d,
  0x61, 0x74, 0x4d, 0x75, 0x6c, 0x00, 0x00, 0x00, 0x02, 0x00, 0x00, 0x00,
  0x0a, 0x00, 0x00, 0x00, 0x0a, 0x00, 0x00, 0x00, 0x92, 0xfd, 0xff, 0xff,
  0x00, 0x00, 0x00, 0x01, 0x10, 0x00, 0x00, 0x00, 0x10, 0x00, 0x00, 0x00,
  0x0a, 0x00, 0x00, 0x00, 0x28, 0x00, 0x00, 0x00, 0xf4, 0xfc, 0xff, 0xff,
  0x19, 0x00, 0x00, 0x00, 0x73, 0x65, 0x71, 0x75, 0x65, 0x6e, 0x74, 0x69,
  0x61, 0x6c, 0x2f, 0x64, 0x65, 0x6e, 0x73, 0x65, 0x5f, 0x33, 0x2f, 0x4d,
  0x61, 0x74, 0x4d, 0x75, 0x6c, 0x00, 0x00, 0x00, 0x02, 0x00, 0x00, 0x00,
  0x0a, 0x00, 0x00, 0x00, 0x0a, 0x00, 0x00, 0x00, 0xda, 0xfd, 0xff, 0xff,
  0x00, 0x00, 0x00, 0x01, 0x10, 0x00, 0x00, 0x00, 0x10, 0x00, 0x00, 0x00,
  0x09, 0x00, 0x00, 0x00, 0x28, 0x00, 0x00, 0x00, 0x3c, 0xfd, 0xff, 0xff,
  0x19, 0x00, 0x00, 0x00, 0x73, 0x65, 0x71, 0x75, 0x65, 0x6e, 0x74, 0x69,
  0x61, 0x6c, 0x2f, 0x64, 0x65, 0x6e, 0x73, 0x65, 0x5f, 0x32, 0x2f, 0x4d,
  0x61, 0x74, 0x4d, 0x75, 0x6c, 0x00, 0x00, 0x00, 0x02, 0x00, 0x00, 0x00,
  0x0a, 0x00, 0x00, 0x00, 0x0a, 0x00, 0x00, 0x00, 0x22, 0xfe, 0xff, 0xff,
  0x00, 0x00, 0x00, 0x01, 0x10, 0x00, 0x00, 0x00, 0x10, 0x00, 0x00, 0x00,
  0x08, 0x00, 0x00, 0x00, 0x28, 0x00, 0x00, 0x00, 0x84, 0xfd, 0xff, 0xff,
  0x19, 0x00, 0x00, 0x00, 0x73, 0x65, 0x71, 0x75, 0x65, 0x6e, 0x74, 0x69,
  0x61, 0x6c, 0x2f, 0x64, 0x65, 0x6e, 0x73, 0x65, 0x5f, 0x31, 0x2f, 0x4d,
  0x61, 0x74, 0x4d, 0x75, 0x6c, 0x00, 0x00, 0x00, 0x02, 0x00, 0x00, 0x00,
  0x0a, 0x00, 0x00, 0x00, 0x04, 0x00, 0x00, 0x00, 0x6a, 0xfe, 0xff, 0xff,
  0x00, 0x00, 0x00, 0x01, 0x10, 0x00, 0x00, 0x00, 0x10, 0x00, 0x00, 0x00,
  0x07, 0x00, 0x00, 0x00, 0x24, 0x00, 0x00, 0x00, 0xcc, 0xfd, 0xff, 0xff,
  0x17, 0x00, 0x00, 0x00, 0x73, 0x65, 0x71, 0x75, 0x65, 0x6e, 0x74, 0x69,
  0x61, 0x6c, 0x2f, 0x64, 0x65, 0x6e, 0x73, 0x65, 0x2f, 0x4d, 0x61, 0x74,
  0x4d, 0x75, 0x6c, 0x00, 0x02, 0x00, 0x00, 0x00, 0x04, 0x00, 0x00, 0x00,
  0x01, 0x00, 0x00, 0x00, 0xae, 0xfe, 0xff, 0xff, 0x00, 0x00, 0x00, 0x01,
  0x10, 0x00, 0x00, 0x00, 0x10, 0x00, 0x00, 0x00, 0x06, 0x00, 0x00, 0x00,
  0x38, 0x00, 0x00, 0x00, 0x10, 0xfe, 0xff, 0xff, 0x29, 0x00, 0x00, 0x00,
  0x73, 0x65, 0x71, 0x75, 0x65, 0x6e, 0x74, 0x69, 0x61, 0x6c, 0x2f, 0x64,
  0x65, 0x6e, 0x73, 0x65, 0x5f, 0x35, 0x2f, 0x42, 0x69, 0x61, 0x73, 0x41,
  0x64, 0x64, 0x2f, 0x52, 0x65, 0x61, 0x64, 0x56, 0x61, 0x72, 0x69, 0x61,
  0x62, 0x6c, 0x65, 0x4f, 0x70, 0x00, 0x00, 0x00, 0x01, 0x00, 0x00, 0x00,
  0x01, 0x00, 0x00, 0x00, 0x02, 0xff, 0xff, 0xff, 0x00, 0x00, 0x00, 0x01,
  0x10, 0x00, 0x00, 0x00, 0x10, 0x00, 0x00, 0x00, 0x05, 0x00, 0x00, 0x00,
  0x38, 0x00, 0x00, 0x00, 0x64, 0xfe, 0xff, 0xff, 0x29, 0x00, 0x00, 0x00,
  0x73, 0x65, 0x71, 0x75, 0x65, 0x6e, 0x74, 0x69, 0x61, 0x6c, 0x2f, 0x64,
  0x65, 0x6e, 0x73, 0x65, 0x5f, 0x34, 0x2f, 0x42, 0x69, 0x61, 0x73, 0x41,
  0x64, 0x64, 0x2f, 0x52, 0x65, 0x61, 0x64, 0x56, 0x61, 0x72, 0x69, 0x61,
  0x62, 0x6c, 0x65, 0x4f, 0x70, 0x00, 0x00, 0x00, 0x01, 0x00, 0x00, 0x00,
  0x0a, 0x00, 0x00, 0x00, 0x56, 0xff, 0xff, 0xff, 0x00, 0x00, 0x00, 0x01,
  0x10, 0x00, 0x00, 0x00, 0x10, 0x00, 0x00, 0x00, 0x04, 0x00, 0x00, 0x00,
  0x38, 0x00, 0x00, 0x00, 0xb8, 0xfe, 0xff, 0xff, 0x29, 0x00, 0x00, 0x00,
  0x73, 0x65, 0x71, 0x75, 0x65, 0x6e, 0x74, 0x69, 0x61, 0x6c, 0x2f, 0x64,
  0x65, 0x6e, 0x73, 0x65, 0x5f, 0x33, 0x2f, 0x42, 0x69, 0x61, 0x73, 0x41,
  0x64, 0x64, 0x2f, 0x52, 0x65, 0x61, 0x64, 0x56, 0x61, 0x72, 0x69, 0x61,
  0x62, 0x6c, 0x65, 0x4f, 0x70, 0x00, 0x00, 0x00, 0x01, 0x00, 0x00, 0x00,
  0x0a, 0x00, 0x00, 0x00, 0xaa, 0xff, 0xff, 0xff, 0x00, 0x00, 0x00, 0x01,
  0x10, 0x00, 0x00, 0x00, 0x10, 0x00, 0x00, 0x00, 0x03, 0x00, 0x00, 0x00,
  0x38, 0x00, 0x00, 0x00, 0x0c, 0xff, 0xff, 0xff, 0x29, 0x00, 0x00, 0x00,
  0x73, 0x65, 0x71, 0x75, 0x65, 0x6e, 0x74, 0x69, 0x61, 0x6c, 0x2f, 0x64,
  0x65, 0x6e, 0x73, 0x65, 0x5f, 0x32, 0x2f, 0x42, 0x69, 0x61, 0x73, 0x41,
  0x64, 0x64, 0x2f, 0x52, 0x65, 0x61, 0x64, 0x56, 0x61, 0x72, 0x69, 0x61,
  0x62, 0x6c, 0x65, 0x4f, 0x70, 0x00, 0x00, 0x00, 0x01, 0x00, 0x00, 0x00,
  0x0a, 0x00, 0x00, 0x00, 0x00, 0x00, 0x16, 0x00, 0x18, 0x00, 0x14, 0x00,
  0x00, 0x00, 0x10, 0x00, 0x0c, 0x00, 0x08, 0x00, 0x00, 0x00, 0x00, 0x00,
  0x00, 0x00, 0x07, 0x00, 0x16, 0x00, 0x00, 0x00, 0x00, 0x00, 0x00, 0x01,
  0x10, 0x00, 0x00, 0x00, 0x10, 0x00, 0x00, 0x00, 0x02, 0x00, 0x00, 0x00,
  0x44, 0x00, 0x00, 0x00, 0x78, 0xff, 0xff, 0xff, 0x34, 0x00, 0x00, 0x00,
  0x73, 0x65, 0x71, 0x75, 0x65, 0x6e, 0x74, 0x69, 0x61, 0x6c, 0x2f, 0x64,
  0x65, 0x6e, 0x73, 0x65, 0x5f, 0x31, 0x2f, 0x4d, 0x61, 0x74, 0x4d, 0x75,
  0x6c, 0x3b, 0x73, 0x65, 0x71, 0x75, 0x65, 0x6e, 0x74, 0x69, 0x61, 0x6c,
  0x2f, 0x64, 0x65, 0x6e, 0x73, 0x65, 0x5f, 0x31, 0x2f, 0x42, 0x69, 0x61,
  0x73, 0x41, 0x64, 0x64, 0x00, 0x00, 0x00, 0x00, 0x01, 0x00, 0x00, 0x00,
  0x0a, 0x00, 0x00, 0x00, 0x00, 0x00, 0x16, 0x00, 0x1c, 0x00, 0x18, 0x00,
  0x00, 0x00, 0x14, 0x00, 0x10, 0x00, 0x0c, 0x00, 0x00, 0x00, 0x00, 0x00,
  0x08, 0x00, 0x07, 0x00, 0x16, 0x00, 0x00, 0x00, 0x00, 0x00, 0x00, 0x01,
  0x14, 0x00, 0x00, 0x00, 0x20, 0x00, 0x00, 0x00, 0x20, 0x00, 0x00, 0x00,
  0x01, 0x00, 0x00, 0x00, 0x3c, 0x00, 0x00, 0x00, 0x02, 0x00, 0x00, 0x00,
  0xff, 0xff, 0xff, 0xff, 0x01, 0x00, 0x00, 0x00, 0x04, 0x00, 0x04, 0x00,
  0x04, 0x00, 0x00, 0x00, 0x1d, 0x00, 0x00, 0x00, 0x73, 0x65, 0x72, 0x76,
  0x69, 0x6e, 0x67, 0x5f, 0x64, 0x65, 0x66, 0x61, 0x75, 0x6c, 0x74, 0x5f,
  0x64, 0x65, 0x6e, 0x73, 0x65, 0x5f, 0x69, 0x6e, 0x70, 0x75, 0x74, 0x3a,
  0x30, 0x00, 0x00, 0x00, 0x02, 0x00, 0x00, 0x00, 0x01, 0x00, 0x00, 0x00,
  0x01, 0x00, 0x00, 0x00, 0x02, 0x00, 0x00, 0x00, 0x20, 0x00, 0x00, 0x00,
  0x04, 0x00, 0x00, 0x00, 0xf4, 0xff, 0xff, 0xff, 0x1c, 0x00, 0x00, 0x00,
  0x00, 0x00, 0x00, 0x1c, 0x0c, 0x00, 0x0c, 0x00, 0x0b, 0x00, 0x00, 0x00,
  0x00, 0x00, 0x04, 0x00, 0x0c, 0x00, 0x00, 0x00, 0x09, 0x00, 0x00, 0x00,
  0x00, 0x00, 0x00, 0x09
};
unsigned int models_sinemodel_tflite_len = 4984;
